<unk>	0
<s>	0
</s>	0
▁t	-0
he	-1
▁a	-2
▁п	-3
in	-4
▁с	-5
▁the	-6
▁в	-7
▁н	-8
▁o	-9
re	-10
то	-11
▁s	-12
▁w	-13
er	-14
▁о	-15
nd	-16
▁и	-17
но	-18
en	-19
ст	-20
ко	-21
ра	-22
ен	-23
on	-24
at	-25
it	-26
ро	-27
is	-28
ал	-29
▁b	-30
▁по	-31
ou	-32
▁c	-33
го	-34
▁of	-35
▁h	-36
ed	-37
▁m	-38
▁f	-39
▁d	-40
es	-41
▁p	-42
ре	-43
▁д	-44
or	-45
ка	-46
ли	-47
an	-48
▁and	-49
ar	-50
▁to	-51
▁б	-52
▁на	-53
▁не	-54
▁м	-55
ing	-56
ло	-57
▁in	-58
ла	-59
ри	-60
▁l	-61
ll	-62
ни	-63
ет	-64
as	-65
▁th	-66
ть	-67
во	-68
на	-69
▁з	-70
▁т	-71
▁ч	-72
▁n	-73
ер	-74
ны	-75
ся	-76
ва	-77
▁у	-78
ль	-79
ic	-80
om	-81
▁-	-82
▁e	-83
ки	-84
▁he	-85
ем	-86
▁"	-87
le	-88
▁g	-89
да	-90
ion	-91
ut	-92
сь	-93
▁be	-94
ле	-95
▁I	-96
▁е	-97
▁за	-98
ent	-99
ру	-100
al	-101
▁ко	-102
ad	-103
ot	-104
▁к	-105
st	-106
ми	-107
ve	-108
ви	-109
ти	-110
ени	-111
▁re	-112
те	-113
ну	-114
se	-115
▁T	-116
ro	-117
ди	-118
im	-119
▁бы	-120
▁что	-121
ce	-122
ly	-123
▁ра	-124
та	-125
▁wh	-126
▁u	-127
id	-128
не	-129
де	-130
▁ка	-131
et	-132
ld	-133
же	-134
до	-135
ct	-136
▁от	-137
ow	-138
▁that	-139
ver	-140
▁on	-141
▁со	-142
▁э	-143
ur	-144
▁про	-145
ir	-146
▁то	-147
хо	-148
▁was	-149
▁S	-150
gh	-151
▁A	-152
▁y	-153
ith	-154
▁во	-155
мо	-156
▁при	-157
▁it	-158
▁В	-159
ay	-160
ве	-161
▁г	-162
ля	-163
▁for	-164
ch	-165
▁with	-166
▁до	-167
▁Н	-168
се	-169
▁as	-170
ri	-171
▁П	-172
чи	-173
по	-174
▁de	-175
ши	-176
▁is	-177
▁О	-178
am	-179
ма	-180
▁С	-181
▁we	-182
▁об	-183
▁а	-184
▁st	-185
▁M	-186
▁his	-187
▁вы	-188
▁мо	-189
жи	-190
ры	-191
▁an	-192
ше	-193
▁you	-194
ку	-195
али	-196
▁го	-197
ra	-198
▁К	-199
че	-200
▁The	-201
▁ha	-202
бо	-203
сти	-204
▁C	-205
▁H	-206
her	-207
il	-208
ter	-209
ере	-210
ала	-211
▁1	-212
qu	-213
▁B	-214
за	-215
▁из	-216
▁v	-217
▁та	-218
▁not	-219
▁это	-220
лу	-221
ght	-222
ста	-223
▁я	-224
сто	-225
ду	-226
ско	-227
ной	-228
▁но	-229
▁P	-230
си	-231
ча	-232
ме	-233
▁он	-234
▁at	-235
ще	-236
oo	-237
▁se	-238
ich	-239
ation	-240
▁М	-241
ill	-242
if	-243
▁su	-244
--	-245
ain	-246
▁ни	-247
▁had	-248
ess	-249
сть	-250
▁(	-251
со	-252
ke	-253
▁Д	-254
ge	-255
▁by	-256
му	-257
all	-258
▁or	-259
▁G	-260
▁con	-261
▁А	-262
▁его	-263
ul	-264
ould	-265
ня	-266
▁все	-267
▁W	-268
▁раз	-269
▁как	-270
us	-271
▁Т	-272
лю	-273
▁И	-274
щи	-275
га	-276
ци	-277
rom	-278
pe	-279
ie	-280
red	-281
est	-282
▁бо	-283
la	-284
▁me	-285
вы	-286
тель	-287
енно	-288
▁под	-289
▁her	-290
▁sh	-291
▁ст	-292
лся	-293
ей	-294
▁which	-295
вер	-296
res	-297
te	-298
▁L	-299
ря	-300
ски	-301
▁_	-302
ный	-303
ore	-304
ol	-305
▁пре	-306
th	-307
▁сво	-308
▁R	-309
аль	-310
▁com	-311
ant	-312
ги	-313
▁F	-314
os	-315
▁ne	-316
▁so	-317
ab	-318
▁ex	-319
▁all	-320
▁k	-321
ные	-322
un	-323
па	-324
гда	-325
▁from	-326
са	-327
ения	-328
ers	-329
пи	-330
▁E	-331
ало	-332
▁him	-333
▁те	-334
▁this	-335
ного	-336
▁have	-337
ist	-338
▁ли	-339
ous	-340
em	-341
ect	-342
▁D	-343
ных	-344
ты	-345
pp	-346
▁sa	-347
ву	-348
▁ре	-349
ig	-350
бы	-351
▁же	-352
би	-353
▁r	-354
ard	-355
▁кото	-356
▁Б	-357
▁wor	-358
▁but	-359
ck	-360
ate	-361
and	-362
жа	-363
▁По	-364
ться	-365
бе	-366
el	-367
▁се	-368
ение	-369
um	-370
ту	-371
our	-372
▁де	-373
▁бе	-374
▁un	-375
▁хо	-376
▁ве	-377
▁ch	-378
ust	-379
▁le	-380
▁qu	-381
▁are	-382
лы	-383
ight	-384
▁са	-385
каз	-386
лько	-387
art	-388
▁ф	-389
▁ме	-390
▁pro	-391
це	-392
ша	-393
▁were	-394
▁Г	-395
▁al	-396
ive	-397
ень	-398
ber	-399
iv	-400
▁do	-401
▁N	-402
▁they	-403
hen	-404
кой	-405
▁she	-406
ему	-407
▁пере	-408
▁up	-409
ца	-410
▁who	-411
▁сто	-412
▁Р	-413
▁она	-414
ство	-415
ды	-416
▁man	-417
▁ру	-418
ным	-419
ется	-420
▁my	-421
пе	-422
op	-423
▁ее	-424
▁O	-425
вал	-426
▁en	-427
out	-428
ort	-429
▁да	-430
▁their	-431
▁no	-432
ome	-433
вет	-434
ound	-435
ong	-436
▁было	-437
ке	-438
ity	-439
▁j	-440
ют	-441
▁Л	-442
зи	-443
зо	-444
▁си	-445
▁рас	-446
ast	-447
▁J	-448
very	-449
ind	-450
▁так	-451
▁ма	-452
▁one	-453
nt	-454
▁бу	-455
ies	-456
▁them	-457
ame	-458
▁ab	-459
жно	-460
▁la	-461
мы	-462
▁ми	-463
▁пос	-464
▁Я	-465
▁ви	-466
od	-467
лась	-468
ost	-469
ment	-470
pt	-471
ak	-472
рем	-473
,"	-474
▁2	-475
ci	-476
ag	-477
ure	-478
ная	-479
▁Он	-480
ар	-481
ств	-482
▁fe	-483
▁Э	-484
вши	-485
▁дру	-486
ther	-487
про	-488
sel	-489
reat	-490
▁He	-491
ood	-492
▁На	-493
to	-494
жен	-495
▁Но	-496
нов	-497
▁been	-498
пу	-499
▁any	-500
▁жи	-501
ба	-502
чно	-503
cc	-504
▁would	-505
ine	-506
▁ста	-507
▁fa	-508
сли	-509
ff	-510
▁лю	-511
▁ar	-512
▁ag	-513
▁су	-514
ough	-515
ry	-516
гу	-517
ud	-518
▁Е	-519
ров	-520
▁воз	-521
ком	-522
ook	-523
ond	-524
лен	-525
лет	-526
▁З	-527
▁че	-528
▁был	-529
дет	-530
дь	-531
one	-532
▁there	-533
шь	-534
вать	-535
▁kn	-536
ance	-537
ние	-538
itt	-539
▁ис	-540
▁out	-541
▁х	-542
ide	-543
ject	-544
▁will	-545
лись	-546
об	-547
ное	-548
▁од	-549
ap	-550
ven	-551
ния	-552
он	-553
су	-554
▁вз	-555
able	-556
▁ле	-557
еня	-558
▁work	-559
ans	-560
▁said	-561
▁im	-562
ков	-563
▁мы	-564
▁для	-565
ходи	-566
▁Ч	-567
ass	-568
▁dis	-569
ence	-570
▁tr	-571
ire	-572
ром	-573
wn	-574
ose	-575
ан	-576
▁--	-577
том	-578
пра	-579
▁other	-580
▁которы	-581
ор	-582
▁when	-583
нул	-584
▁li	-585
▁ad	-586
▁sp	-587
ell	-588
▁пред	-589
ную	-590
▁ш	-591
ак	-592
▁зна	-593
▁У	-594
▁ро	-595
hed	-596
бя	-597
▁can	-598
тельно	-599
are	-600
▁It	-601
ish	-602
pl	-603
▁их	-604
бу	-605
ions	-606
▁боль	-607
▁more	-608
▁гла	-609
▁Th	-610
▁они	-611
▁per	-612
ep	-613
ary	-614
▁только	-615
ном	-616
лове	-617
кры	-618
ice	-619
ска	-620
au	-621
▁us	-622
▁go	-623
▁еще	-624
ree	-625
ран	-626
▁ва	-627
▁врем	-628
▁Не	-629
вой	-630
ime	-631
ake	-632
ite	-633
▁ча	-634
▁ку	-635
▁und	-636
вно	-637
▁Ко	-638
▁has	-639
▁когда	-640
сту	-641
▁вс	-642
▁if	-643
дя	-644
ющи	-645
тя	-646
вали	-647
▁меня	-648
▁уже	-649
▁ro	-650
ща	-651
self	-652
мен	-653
▁am	-654
ался	-655
▁кон	-656
▁pr	-657
лось	-658
▁пу	-659
ха	-660
▁сло	-661
ress	-662
▁into	-663
▁голо	-664
ac	-665
дел	-666
per	-667
ord	-668
ally	-669
ated	-670
▁des	-671
▁па	-672
▁ду	-673
ue	-674
▁чтобы	-675
▁than	-676
ade	-677
▁'	-678
▁some	-679
гля	-680
own	-681
пер	-682
зу	-683
ren	-684
сте	-685
▁V	-686
зы	-687
▁our	-688
ble	-689
вля	-690
here	-691
▁19	-692
мот	-693
мер	-694
▁ему	-695
ars	-696
age	-697
ства	-698
зна	-699
ove	-700
ount	-701
bl	-702
алось	-703
▁tw	-704
uten	-705
▁its	-706
▁could	-707
тся	-708
вая	-709
berg	-710
▁part	-711
▁или	-712
ach	-713
▁pl	-714
жет	-715
ne	-716
▁слу	-717
▁pre	-718
▁Pro	-719
ays	-720
▁Во	-721
▁In	-722
▁им	-723
▁челове	-724
ской	-725
стви	-726
oll	-727
ile	-728
utenberg	-729
▁your	-730
▁what	-731
▁pe	-732
пы	-733
вя	-734
urn	-735
▁ту	-736
нь	-737
▁мне	-738
ции	-739
жд	-740
▁great	-741
вори	-742
▁чу	-743
▁му	-744
fter	-745
▁z	-746
▁ты	-747
▁K	-748
▁пра	-749
▁Ф	-750
▁St	-751
fore	-752
сы	-753
ang	-754
дин	-755
ings	-756
▁cl	-757
▁time	-758
чески	-759
▁само	-760
▁дол	-761
we	-762
▁over	-763
▁Она	-764
▁Х	-765
▁very	-766
▁после	-767
▁Y	-768
ными	-769
av	-770
ru	-771
end	-772
▁пи	-773
ng	-774
ied	-775
▁may	-776
▁about	-777
iss	-778
oy	-779
▁—	-780
▁3	-781
ought	-782
тов	-783
▁And	-784
▁comp	-785
▁upon	-786
ull	-787
▁But	-788
ij	-789
алась	-790
ia	-791
нима	-792
▁была	-793
▁него	-794
▁Mr	-795
▁свои	-796
стро	-797
ens	-798
tain	-799
▁Gutenberg	-800
▁оста	-801
uch	-802
),	-803
▁ин	-804
ack	-805
гра	-806
▁po	-807
спо	-808
▁off	-809
ink	-810
ского	-811
ious	-812
▁сле	-813
ty	-814
▁only	-815
стоя	-816
ces	-817
шел	-818
▁Ch	-819
ark	-820
other	-821
▁should	-822
дно	-823
▁like	-824
дом	-825
чу	-826
▁ri	-827
цо	-828
ittle	-829
▁сказ	-830
ник	-831
ife	-832
▁обра	-833
ER	-834
ations	-835
▁Project	-836
▁know	-837
▁br	-838
▁U	-839
сно	-840
ick	-841
▁now	-842
▁чем	-843
▁again	-844
фи	-845
гла	-846
hing	-847
▁За	-848
▁тем	-849
▁res	-850
▁rem	-851
ved	-852
ild	-853
▁были	-854
▁comm	-855
▁under	-856
▁*	-857
▁acc	-858
▁did	-859
▁пер	-860
ствен	-861
▁little	-862
▁эти	-863
стре	-864
erm	-865
дер	-866
▁[	-867
▁18	-868
мет	-869
▁себя	-870
ней	-871
жал	-872
▁such	-873
▁after	-874
чь	-875
▁пол	-876
▁ind	-877
ign	-878
▁too	-879
ена	-880
ise	-881
▁ye	-882
▁ус	-883
тив	-884
▁must	-885
▁then	-886
ск	-887
цы	-888
▁made	-889
ness	-890
сле	-891
ons	-892
▁вер	-893
ait	-894
ful	-895
ip	-896
▁hand	-897
▁если	-898
жу	-899
▁То	-900
_,	-901
ather	-902
▁gr	-903
▁без	-904
▁see	-905
▁время	-906
iz	-907
int	-908
▁ком	-909
▁fl	-910
▁кра	-911
ition	-912
▁Это	-913
▁et	-914
cl	-915
▁Да	-916
ced	-917
▁these	-918
каза	-919
ew	-920
ман	-921
▁ло	-922
пол	-923
▁даже	-924
).	-925
нулся	-926
ене	-927
▁Ка	-928
ath	-929
рой	-930
ian	-931
шо	-932
▁глаза	-933
▁fir	-934
хи	-935
ван	-936
▁пла	-937
▁imp	-938
▁ra	-939
▁прои	-940
▁how	-941
▁two	-942
og	-943
▁Мо	-944
ft	-945
▁dist	-946
▁жиз	-947
▁cont	-948
▁bl	-949
▁стра	-950
▁cons	-951
пре	-952
rib	-953
▁ob	-954
▁пе	-955
old	-956
сси	-957
▁own	-958
ками	-959
orm	-960
ates	-961
▁look	-962
▁long	-963
▁sc	-964
▁рабо	-965
ward	-966
▁before	-967
▁spe	-968
_.	-969
ении	-970
".	-971
ory	-972
oss	-973
бра	-974
вл	-975
▁rep	-976
кра	-977
ят	-978
▁down	-979
▁te	-980
▁полу	-981
▁men	-982
▁поч	-983
▁bec	-984
",	-985
сты	-986
▁pla	-987
дела	-988
ase	-989
00	-990
ались	-991
▁every	-992
orn	-993
кие	-994
ves	-995
▁much	-996
▁bet	-997
▁good	-998
▁–	-999
ский	-1000
стью	-1001
тер	-1002
ict	-1003
▁нач	-1004
▁ent	-1005
so	-1006
▁old	-1007
▁оч	-1008
▁most	-1009
▁thr	-1010
▁может	-1011
▁где	-1012
che	-1013
кто	-1014
▁first	-1015
ству	-1016
▁подо	-1017
▁where	-1018
fe	-1019
чего	-1020
▁app	-1021
руг	-1022
але	-1023
▁быть	-1024
▁жен	-1025
▁even	-1026
▁sm	-1027
ors	-1028
мотре	-1029
▁form	-1030
перь	-1031
при	-1032
▁того	-1033
und	-1034
▁ей	-1035
стави	-1036
ph	-1037
ron	-1038
▁wr	-1039
ener	-1040
кого	-1041
тра	-1042
ction	-1043
▁ла	-1044
ical	-1045
tm	-1046
▁ди	-1047
▁4	-1048
шу	-1049
▁Со	-1050
▁говори	-1051
row	-1052
▁op	-1053
▁мог	-1054
▁нас	-1055
ственно	-1056
▁aw	-1057
▁тру	-1058
вор	-1059
▁«	-1060
вала	-1061
тому	-1062
▁этого	-1063
▁Ш	-1064
ника	-1065
▁ц	-1066
▁She	-1067
ил	-1068
▁those	-1069
▁тре	-1070
▁i	-1071
ily	-1072
▁pres	-1073
ult	-1074
▁Ма	-1075
▁em	-1076
▁pass	-1077
ких	-1078
нова	-1079
▁Wh	-1080
лей	-1081
▁ско	-1082
нула	-1083
ater	-1084
▁Ни	-1085
ier	-1086
▁ser	-1087
ез	-1088
юще	-1089
▁well	-1090
▁поло	-1091
ким	-1092
▁ap	-1093
бой	-1094
▁гру	-1095
▁сторо	-1096
три	-1097
нии	-1098
▁day	-1099
шей	-1100
ением	-1101
ин	-1102
дей	-1103
ять	-1104
▁Ра	-1105
▁себе	-1106
ев	-1107
нови	-1108
▁спо	-1109
ним	-1110
▁never	-1111
нее	-1112
▁through	-1113
▁сказал	-1114
кий	-1115
вает	-1116
ит	-1117
жда	-1118
▁without	-1119
лек	-1120
▁gl	-1121
▁очень	-1122
ady	-1123
▁этом	-1124
род	-1125
▁don	-1126
▁way	-1127
▁ск	-1128
нд	-1129
лее	-1130
ерез	-1131
ran	-1132
▁par	-1133
вые	-1134
ave	-1135
land	-1136
ited	-1137
▁life	-1138
▁ele	-1139
рь	-1140
кое	-1141
act	-1142
led	-1143
▁свое	-1144
кая	-1145
▁Бо	-1146
▁bel	-1147
сколько	-1148
кую	-1149
лем	-1150
▁lo	-1151
▁might	-1152
▁це	-1153
▁ба	-1154
▁будет	-1155
▁que	-1156
щу	-1157
▁say	-1158
ON	-1159
▁ки	-1160
ouse	-1161
чен	-1162
ered	-1163
ге	-1164
▁think	-1165
▁расс	-1166
▁sub	-1167
▁found	-1168
вый	-1169
ются	-1170
▁них	-1171
▁char	-1172
вшись	-1173
▁лу	-1174
▁came	-1175
▁We	-1176
вед	-1177
▁Ро	-1178
▁just	-1179
▁ос	-1180
▁come	-1181
ний	-1182
▁ней	-1183
ug	-1184
▁нем	-1185
▁ke	-1186
▁над	-1187
▁let	-1188
▁том	-1189
▁лет	-1190
жду	-1191
less	-1192
oth	-1193
);	-1194
ual	-1195
▁seem	-1196
ясь	-1197
▁При	-1198
цу	-1199
les	-1200
▁back	-1201
▁5	-1202
▁ver	-1203
▁make	-1204
ause	-1205
▁himself	-1206
▁count	-1207
▁pers	-1208
нет	-1209
▁этот	-1210
▁thought	-1211
▁inf	-1212
десь	-1213
ople	-1214
pect	-1215
нно	-1216
▁ок	-1217
соб	-1218
▁перед	-1219
▁being	-1220
шего	-1221
▁call	-1222
ten	-1223
EE	-1224
дов	-1225
ving	-1226
вто	-1227
▁взгля	-1228
AR	-1229
час	-1230
рен	-1231
ible	-1232
▁tra	-1233
ial	-1234
▁many	-1235
ред	-1236
▁друго	-1237
▁кто	-1238
ений	-1239
▁Что	-1240
▁ey	-1241
сил	-1242
▁помо	-1243
▁pu	-1244
ents	-1245
▁word	-1246
▁inte	-1247
нал	-1248
▁фи	-1249
▁sur	-1250
▁new	-1251
▁This	-1252
▁same	-1253
▁ша	-1254
▁нее	-1255
▁shall	-1256
▁ответ	-1257
not	-1258
▁|	-1259
▁больше	-1260
▁ret	-1261
▁ну	-1262
ower	-1263
▁beg	-1264
▁каж	-1265
▁есть	-1266
вых	-1267
ried	-1268
▁ним	-1269
▁пока	-1270
тно	-1271
▁here	-1272
▁име	-1273
клю	-1274
бли	-1275
▁rec	-1276
лом	-1277
▁сер	-1278
льно	-1279
▁,	-1280
man	-1281
▁Вы	-1282
▁reg	-1283
▁который	-1284
фе	-1285
▁They	-1286
alk	-1287
▁До	-1288
▁fri	-1289
▁там	-1290
▁поня	-1291
mer	-1292
The	-1293
EN	-1294
ted	-1295
,--	-1296
the	-1297
▁чер	-1298
▁people	-1299
▁last	-1300
▁нет	-1301
ever	-1302
▁supp	-1303
▁set	-1304
ec	-1305
зя	-1306
▁car	-1307
▁Та	-1308
ient	-1309
ья	-1310
cept	-1311
▁ac	-1312
▁inst	-1313
ению	-1314
▁сов	-1315
▁cop	-1316
▁чув	-1317
вался	-1318
▁vo	-1319
ollow	-1320
igh	-1321
▁ничего	-1322
казы	-1323
зво	-1324
▁ma	-1325
стра	-1326
▁(1	-1327
▁der	-1328
ix	-1329
▁If	-1330
рого	-1331
▁дей	-1332
▁TH	-1333
▁дела	-1334
ках	-1335
кон	-1336
▁обо	-1337
хва	-1338
▁exp	-1339
▁чи	-1340
▁объ	-1341
жение	-1342
▁Са	-1343
▁которые	-1344
ished	-1345
▁rel	-1346
чет	-1347
▁sec	-1348
▁Как	-1349
чит	-1350
ense	-1351
▁кро	-1352
ция	-1353
дца	-1354
▁просто	-1355
тем	-1356
▁che	-1357
ейчас	-1358
▁ж	-1359
den	-1360
▁Го	-1361
me	-1362
▁right	-1363
▁гу	-1364
▁war	-1365
▁Все	-1366
ple	-1367
uth	-1368
▁end	-1369
▁свет	-1370
дол	-1371
▁через	-1372
atter	-1373
▁nat	-1374
▁cour	-1375
omet	-1376
▁There	-1377
ью	-1378
вра	-1379
▁ear	-1380
▁можно	-1381
▁dif	-1382
▁co	-1383
▁потом	-1384
▁Un	-1385
▁один	-1386
ib	-1387
▁день	-1388
ских	-1389
▁теперь	-1390
обра	-1391
AN	-1392
ская	-1393
сс	-1394
▁appe	-1395
ution	-1396
▁два	-1397
▁ше	-1398
▁уви	-1399
ertain	-1400
▁случа	-1401
▁You	-1402
▁Ж	-1403
▁вот	-1404
▁други	-1405
можно	-1406
▁стоя	-1407
▁gra	-1408
▁follow	-1409
▁Про	-1410
▁still	-1411
▁get	-1412
▁более	-1413
▁Ми	-1414
▁wom	-1415
▁away	-1416
▁свя	-1417
сем	-1418
▁att	-1419
▁несколько	-1420
▁met	-1421
▁Они	-1422
iet	-1423
▁mar	-1424
▁бро	-1425
du	-1426
▁ти	-1427
▁far	-1428
ince	-1429
▁кре	-1430
шка	-1431
IN	-1432
ern	-1433
▁place	-1434
ню	-1435
ks	-1436
ES	-1437
▁ост	-1438
▁Ar	-1439
▁откры	-1440
li	-1441
▁6	-1442
air	-1443
вания	-1444
нец	-1445
▁сра	-1446
▁die	-1447
нес	-1448
▁своей	-1449
▁works	-1450
стя	-1451
сов	-1452
▁bo	-1453
ened	-1454
▁хоро	-1455
ret	-1456
▁тут	-1457
той	-1458
▁9	-1459
ленно	-1460
▁много	-1461
ute	-1462
aking	-1463
▁глу	-1464
▁while	-1465
нут	-1466
▁ref	-1467
ular	-1468
▁хоте	-1469
▁years	-1470
ss	-1471
▁тот	-1472
vent	-1473
вого	-1474
▁es	-1475
нуть	-1476
▁женщи	-1477
ung	-1478
▁здесь	-1479
▁SEE	-1480
▁Eng	-1481
ared	-1482
▁ар	-1483
ace	-1484
▁poss	-1485
ement	-1486
▁arm	-1487
▁friend	-1488
▁disc	-1489
▁went	-1490
▁gener	-1491
▁turn	-1492
▁всех	-1493
вым	-1494
чем	-1495
мни	-1496
▁law	-1497
▁Те	-1498
▁зем	-1499
стер	-1500
стно	-1501
▁пар	-1502
ально	-1503
▁ord	-1504
дар	-1505
вое	-1506
xt	-1507
прави	-1508
▁лишь	-1509
ner	-1510
▁Ве	-1511
ins	-1512
▁den	-1513
get	-1514
жения	-1515
▁take	-1516
▁снова	-1517
rit	-1518
cess	-1519
▁mo	-1520
ived	-1521
▁act	-1522
▁conf	-1523
чал	-1524
▁child	-1525
▁пло	-1526
дели	-1527
нулась	-1528
▁человек	-1529
▁head	-1530
▁вой	-1531
▁улы	-1532
..	-1533
ете	-1534
▁Когда	-1535
ined	-1536
oh	-1537
нако	-1538
ien	-1539
▁тоже	-1540
воз	-1541
▁add	-1542
▁les	-1543
пусти	-1544
лаго	-1545
ены	-1546
▁mon	-1547
шла	-1548
бира	-1549
▁est	-1550
▁всего	-1551
ваться	-1552
шки	-1553
▁elect	-1554
rest	-1555
ts	-1556
vern	-1557
▁num	-1558
лин	-1559
вший	-1560
▁ass	-1561
▁against	-1562
▁also	-1563
OR	-1564
ешь	-1565
▁встре	-1566
▁8	-1567
▁eff	-1568
ments	-1569
▁prov	-1570
тро	-1571
ither	-1572
ls	-1573
▁поя	-1574
шли	-1575
▁пы	-1576
тере	-1577
сло	-1578
its	-1579
▁дви	-1580
▁послед	-1581
▁реши	-1582
▁sla	-1583
▁кар	-1584
▁ря	-1585
▁sl	-1586
vers	-1587
▁От	-1588
▁love	-1589
▁Если	-1590
▁young	-1591
oot	-1592
de	-1593
▁rest	-1594
▁put	-1595
ting	-1596
gg	-1597
▁ask	-1598
▁гра	-1599
▁As	-1600
▁ple	-1601
▁read	-1602
▁van	-1603
▁нео	-1604
ступ	-1605
blic	-1606
▁want	-1607
▁sent	-1608
▁world	-1609
▁ever	-1610
▁rece	-1611
▁ed	-1612
▁жизни	-1613
▁eyes	-1614
ene	-1615
▁inc	-1616
amp	-1617
вери	-1618
▁коро	-1619
imes	-1620
▁тя	-1621
▁giv	-1622
▁отно	-1623
▁yet	-1624
теля	-1625
ail	-1626
ters	-1627
нечно	-1628
▁кру	-1629
дой	-1630
▁An	-1631
▁Ва	-1632
▁сейчас	-1633
▁somet	-1634
▁str	-1635
▁Мы	-1636
▁full	-1637
цион	-1638
▁Ну	-1639
▁свою	-1640
▁house	-1641
ock	-1642
рая	-1643
aut	-1644
▁этой	-1645
▁Хо	-1646
▁подня	-1647
pr	-1648
тия	-1649
ale	-1650
▁лицо	-1651
ween	-1652
сом	-1653
▁though	-1654
йти	-1655
тери	-1656
▁occ	-1657
пере	-1658
▁моло	-1659
ures	-1660
▁между	-1661
▁mind	-1662
▁pur	-1663
be	-1664
ently	-1665
▁inter	-1666
▁Так	-1667
▁er	-1668
▁двер	-1669
▁надо	-1670
▁del	-1671
▁ог	-1672
▁действи	-1673
hat	-1674
▁слова	-1675
▁высо	-1676
▁give	-1677
▁el	-1678
▁country	-1679
▁ор	-1680
rent	-1681
▁three	-1682
▁7	-1683
cy	-1684
▁дет	-1685
▁кри	-1686
▁вме	-1687
iter	-1688
тор	-1689
▁исто	-1690
лыш	-1691
будь	-1692
ставля	-1693
тил	-1694
▁find	-1695
▁heart	-1696
▁dec	-1697
▁руки	-1698
▁ho	-1699
▁ge	-1700
▁gu	-1701
▁Mar	-1702
▁between	-1703
ников	-1704
▁things	-1705
▁обе	-1706
дум	-1707
▁term	-1708
▁почти	-1709
▁copy	-1710
чки	-1711
▁few	-1712
▁три	-1713
ские	-1714
▁спи	-1715
▁each	-1716
▁вся	-1717
▁God	-1718
▁соб	-1719
ways	-1720
▁aff	-1721
▁муж	-1722
▁тра	-1723
▁ins	-1724
кла	-1725
когда	-1726
▁another	-1727
▁night	-1728
▁Ли	-1729
▁left	-1730
...	-1731
▁To	-1732
▁tell	-1733
▁Од	-1734
▁тех	-1735
▁Па	-1736
▁улыб	-1737
рей	-1738
▁буду	-1739
дня	-1740
▁son	-1741
▁вопро	-1742
▁нам	-1743
▁пле	-1744
▁вд	-1745
яс	-1746
нибудь	-1747
▁ph	-1748
▁доро	-1749
▁комна	-1750
ском	-1751
▁спро	-1752
▁повер	-1753
ason	-1754
▁потому	-1755
зе	-1756
▁тебя	-1757
▁THE	-1758
ract	-1759
▁once	-1760
вание	-1761
ющий	-1762
тре	-1763
▁дер	-1764
ружи	-1765
▁хотя	-1766
ken	-1767
▁сол	-1768
lish	-1769
тан	-1770
сла	-1771
рое	-1772
▁совер	-1773
▁min	-1774
стве	-1775
▁лег	-1776
▁ce	-1777
ronic	-1778
▁cor	-1779
▁For	-1780
▁person	-1781
ден	-1782
ton	-1783
▁nothing	-1784
ody	-1785
▁сам	-1786
▁ак	-1787
▁пря	-1788
▁return	-1789
▁mom	-1790
▁face	-1791
▁продол	-1792
пря	-1793
▁use	-1794
iness	-1795
ps	-1796
▁мал	-1797
als	-1798
▁power	-1799
вар	-1800
рии	-1801
▁бра	-1802
alf	-1803
ating	-1804
▁saw	-1805
▁hum	-1806
▁луч	-1807
ning	-1808
▁сме	-1809
▁самы	-1810
▁всегда	-1811
мя	-1812
▁tre	-1813
ходя	-1814
▁17	-1815
osed	-1816
▁At	-1817
ired	-1818
шая	-1819
ection	-1820
▁States	-1821
▁вос	-1822
▁дело	-1823
most	-1824
казать	-1825
▁вра	-1826
ек	-1827
▁kind	-1828
▁буд	-1829
▁маши	-1830
▁sch	-1831
лов	-1832
ities	-1833
▁Вот	-1834
right	-1835
бро	-1836
▁light	-1837
▁могу	-1838
▁всем	-1839
▁De	-1840
▁certain	-1841
ub	-1842
▁замет	-1843
чка	-1844
ief	-1845
ления	-1846
▁Ви	-1847
aken	-1848
вается	-1849
▁When	-1850
▁int	-1851
води	-1852
ники	-1853
▁near	-1854
▁сту	-1855
пло	-1856
вари	-1857
▁electronic	-1858
дал	-1859
▁ан	-1860
спе	-1861
▁поли	-1862
▁оказ	-1863
▁happ	-1864
▁lar	-1865
пыт	-1866
лез	-1867
шло	-1868
▁sou	-1869
нем	-1870
▁feel	-1871
▁стал	-1872
▁ca	-1873
rew	-1874
рю	-1875
ход	-1876
▁любо	-1877
▁дере	-1878
▁жизнь	-1879
ee	-1880
▁always	-1881
оло	-1882
▁perf	-1883
▁авто	-1884
▁вла	-1885
▁суще	-1886
thing	-1887
▁Ты	-1888
▁года	-1889
▁av	-1890
▁такой	-1891
мой	-1892
▁га	-1893
ших	-1894
selves	-1895
▁His	-1896
ants	-1897
▁&	-1898
▁вели	-1899
чил	-1900
ux	-1901
▁whole	-1902
▁мол	-1903
▁ev	-1904
▁сы	-1905
реди	-1906
▁No	-1907
▁det	-1908
oc	-1909
жида	-1910
▁On	-1911
▁уда	-1912
IS	-1913
▁because	-1914
▁du	-1915
▁dire	-1916
▁вас	-1917
▁против	-1918
▁both	-1919
ised	-1920
дра	-1921
▁fam	-1922
▁ши	-1923
▁успе	-1924
▁спе	-1925
деть	-1926
от	-1927
▁def	-1928
▁бли	-1929
▁руку	-1930
им	-1931
▁among	-1932
▁своего	-1933
▁тогда	-1934
ohn	-1935
▁пор	-1936
▁благо	-1937
▁il	-1938
шен	-1939
oun	-1940
▁ext	-1941
▁present	-1942
▁ю	-1943
LL	-1944
▁cond	-1945
vel	-1946
▁Дж	-1947
▁took	-1948
ged	-1949
▁sy	-1950
▁Re	-1951
▁собой	-1952
▁словно	-1953
кре	-1954
ющих	-1955
▁тер	-1956
ступи	-1957
рон	-1958
▁sw	-1959
ross	-1960
▁days	-1961
жать	-1962
▁nor	-1963
▁человека	-1964
▁своих	-1965
▁called	-1966
ложи	-1967
▁thing	-1968
емо	-1969
жде	-1970
▁сем	-1971
▁чет	-1972
▁эта	-1973
емы	-1974
▁whom	-1975
▁свой	-1976
вом	-1977
цев	-1978
▁small	-1979
▁приня	-1980
IT	-1981
зда	-1982
rown	-1983
▁point	-1984
▁следу	-1985
sh	-1986
фор	-1987
▁moment	-1988
▁father	-1989
up	-1990
▁name	-1991
▁возможно	-1992
▁art	-1993
▁ры	-1994
ум	-1995
0.	-1996
▁голову	-1997
que	-1998
1.	-1999
ah	-2000
▁bre	-2001
▁di	-2002
▁тол	-2003
med	-2004
2.	-2005
ности	-2006
ative	-2007
▁dem	-2008
▁care	-2009
▁bu	-2010
▁дву	-2011
ident	-2012
any	-2013
▁смотре	-2014
aster	-2015
az	-2016
ont	-2017
men	-2018
ool	-2019
чение	-2020
elt	-2021
▁cle	-2022
Book	-2023
▁public	-2024
▁каз	-2025
мени	-2026
▁Le	-2027
нув	-2028
▁внима	-2029
hes	-2030
ider	-2031
▁ника	-2032
▁сли	-2033
▁OF	-2034
▁сла	-2035
▁dou	-2036
из	-2037
ющие	-2038
▁side	-2039
▁vis	-2040
енного	-2041
uss	-2042
-1	-2043
▁So	-2044
ье	-2045
цию	-2046
▁water	-2047
став	-2048
▁col	-2049
rist	-2050
▁совсем	-2051
▁land	-2052
вшие	-2053
вались	-2054
pped	-2055
сса	-2056
▁какой	-2057
▁fact	-2058
▁фор	-2059
▁home	-2060
▁никогда	-2061
▁free	-2062
вич	-2063
▁тебе	-2064
▁гор	-2065
0,	-2066
▁кор	-2067
▁serv	-2068
▁"--	-2069
пера	-2070
вших	-2071
▁вам	-2072
▁hands	-2073
▁best	-2074
▁ans	-2075
▁keep	-2076
▁Его	-2077
ific	-2078
clud	-2079
▁ter	-2080
▁ste	-2081
конец	-2082
uring	-2083
▁prop	-2084
▁course	-2085
▁ведь	-2086
▁сдела	-2087
▁времени	-2088
ческой	-2089
▁soon	-2090
▁fell	-2091
▁Mrs	-2092
ched	-2093
▁hour	-2094
▁Ан	-2095
чной	-2096
▁John	-2097
▁взя	-2098
чина	-2099
вую	-2100
кото	-2101
tend	-2102
▁pol	-2103
▁людей	-2104
▁dra	-2105
тен	-2106
▁sat	-2107
▁Al	-2108
ield	-2109
ines	-2110
▁обы	-2111
▁less	-2112
▁fore	-2113
вели	-2114
телей	-2115
aps	-2116
▁образо	-2117
▁mod	-2118
▁half	-2119
▁cur	-2120
ерт	-2121
▁opp	-2122
▁door	-2123
ством	-2124
ху	-2125
▁done	-2126
tem	-2127
▁уди	-2128
▁обще	-2129
ях	-2130
ives	-2131
ages	-2132
▁ска	-2133
▁prom	-2134
шком	-2135
▁вдруг	-2136
▁got	-2137
att	-2138
▁сте	-2139
тать	-2140
▁state	-2141
▁seen	-2142
ское	-2143
3.	-2144
рак	-2145
▁quest	-2146
вил	-2147
щая	-2148
▁люби	-2149
ission	-2150
use	-2151
слу	-2152
▁adv	-2153
▁adm	-2154
iew	-2155
▁непо	-2156
ряд	-2157
чала	-2158
▁X	-2159
io	-2160
▁vol	-2161
▁hard	-2162
▁Found	-2163
мент	-2164
▁ды	-2165
дви	-2166
▁15	-2167
▁sim	-2168
▁het	-2169
▁коман	-2170
▁Then	-2171
вают	-2172
ling	-2173
▁distrib	-2174
▁looked	-2175
▁having	-2176
▁unt	-2177
▁terms	-2178
щен	-2179
▁seemed	-2180
ность	-2181
▁interest	-2182
кан	-2183
▁Foundation	-2184
ление	-2185
▁mil	-2186
что	-2187
▁requ	-2188
пла	-2189
▁сразу	-2190
▁woman	-2191
▁show	-2192
▁находи	-2193
▁That	-2194
▁told	-2195
▁смер	-2196
▁Бе	-2197
жала	-2198
▁выра	-2199
ливо	-2200
une	-2201
▁которой	-2202
AT	-2203
ank	-2204
тически	-2205
▁better	-2206
▁дома	-2207
кло	-2208
▁fin	-2209
▁уби	-2210
▁Де	-2211
▁stand	-2212
▁New	-2213
arn	-2214
▁мно	-2215
▁almost	-2216
сили	-2217
▁произ	-2218
▁орга	-2219
▁belie	-2220
aring	-2221
ert	-2222
▁agre	-2223
▁вто	-2224
▁вол	-2225
▁наде	-2226
ased	-2227
gin	-2228
▁suff	-2229
▁Из	-2230
ably	-2231
▁going	-2232
▁const	-2233
воль	-2234
нием	-2235
ote	-2236
▁cannot	-2237
▁remain	-2238
▁смо	-2239
▁нес	-2240
шенно	-2241
laim	-2242
▁также	-2243
▁весь	-2244
част	-2245
▁wind	-2246
▁hel	-2247
ches	-2248
▁heard	-2249
osition	-2250
▁sil	-2251
рую	-2252
▁дума	-2253
йте	-2254
▁mother	-2255
▁diffe	-2256
ys	-2257
▁sk	-2258
сколь	-2259
raph	-2260
4.	-2261
нен	-2262
▁however	-2263
чку	-2264
▁теле	-2265
ius	-2266
дит	-2267
▁Be	-2268
▁gir	-2269
▁быстро	-2270
▁посмотре	-2271
▁knew	-2272
чения	-2273
▁долж	-2274
▁United	-2275
▁since	-2276
urch	-2277
ison	-2278
▁обла	-2279
ток	-2280
▁сдел	-2281
ех	-2282
wards	-2283
No	-2284
eb	-2285
▁чего	-2286
гли	-2287
ided	-2288
▁beaut	-2289
▁Ind	-2290
8.	-2291
ism	-2292
чер	-2293
gether	-2294
она	-2295
▁bro	-2296
тки	-2297
▁Ку	-2298
ange	-2299
вел	-2300
▁high	-2301
ention	-2302
▁boy	-2303
▁одно	-2304
низ	-2305
дить	-2306
▁недо	-2307
тый	-2308
вести	-2309
▁inv	-2310
жды	-2311
ob	-2312
▁enough	-2313
6.	-2314
ering	-2315
cial	-2316
▁мед	-2317
▁даль	-2318
▁words	-2319
▁une	-2320
блю	-2321
стей	-2322
You	-2323
▁вне	-2324
шения	-2325
▁cr	-2326
▁будто	-2327
▁горо	-2328
▁does	-2329
ians	-2330
▁сви	-2331
▁позво	-2332
ully	-2333
ility	-2334
▁bus	-2335
▁мет	-2336
▁разго	-2337
▁dep	-2338
стал	-2339
▁10	-2340
▁которая	-2341
▁room	-2342
meric	-2343
▁qui	-2344
5.	-2345
▁large	-2346
фа	-2347
▁(19	-2348
стой	-2349
▁matter	-2350
ats	-2351
▁другой	-2352
пал	-2353
▁pri	-2354
▁похо	-2355
▁Q	-2356
раз	-2357
▁Мар	-2358
ets	-2359
ured	-2360
▁возду	-2361
▁What	-2362
▁eBook	-2363
▁something	-2364
вод	-2365
ately	-2366
▁дверь	-2367
oud	-2368
▁number	-2369
шую	-2370
лли	-2371
▁Си	-2372
нить	-2373
▁стре	-2374
▁Нет	-2375
oney	-2376
ходит	-2377
7.	-2378
▁year	-2379
▁asked	-2380
▁прави	-2381
него	-2382
aw	-2383
ax	-2384
▁паль	-2385
дцать	-2386
tern	-2387
дать	-2388
ury	-2389
тал	-2390
▁contin	-2391
▁need	-2392
▁others	-2393
чить	-2394
pend	-2395
чув	-2396
▁жела	-2397
ceed	-2398
▁themselves	-2399
мина	-2400
▁subject	-2401
ances	-2402
▁spir	-2403
▁сказать	-2404
▁рядом	-2405
▁люди	-2406
▁ху	-2407
▁prin	-2408
▁вместе	-2409
▁een	-2410
of	-2411
▁Americ	-2412
haps	-2413
ram	-2414
▁деву	-2415
ствовал	-2416
▁оп	-2417
▁exc	-2418
▁тяже	-2419
▁би	-2420
▁until	-2421
▁necess	-2422
.,	-2423
▁Miss	-2424
▁au	-2425
зад	-2426
▁English	-2427
▁Ле	-2428
вления	-2429
▁tem	-2430
▁pa	-2431
▁ри	-2432
ream	-2433
лый	-2434
▁given	-2435
▁open	-2436
▁hold	-2437
akes	-2438
скую	-2439
тур	-2440
щий	-2441
▁Ла	-2442
ude	-2443
oe	-2444
▁останови	-2445
▁которых	-2446
▁hon	-2447
stand	-2448
▁неу	-2449
9.	-2450
▁Christ	-2451
▁.	-2452
▁taken	-2453
▁ve	-2454
▁rather	-2455
▁кни	-2456
▁whose	-2457
▁da	-2458
▁beh	-2459
цен	-2460
▁quite	-2461
говори	-2462
▁прав	-2463
▁фа	-2464
▁gave	-2465
▁inde	-2466
▁состоя	-2467
▁je	-2468
▁интере	-2469
▁trans	-2470
▁бере	-2471
помни	-2472
▁напра	-2473
держи	-2474
▁друг	-2475
ger	-2476
льзо	-2477
▁16	-2478
▁real	-2479
зд	-2480
нок	-2481
▁малень	-2482
зан	-2483
ressed	-2484
▁consider	-2485
нию	-2486
▁этих	-2487
▁поэ	-2488
▁brought	-2489
▁proper	-2490
▁небо	-2491
▁hor	-2492
ze	-2493
ird	-2494
рован	-2495
bt	-2496
▁эк	-2497
▁тор	-2498
ser	-2499
▁used	-2500
▁"--_	-2501
нала	-2502
▁знал	-2503
▁four	-2504
▁var	-2505
▁Ме	-2506
дель	-2507
▁хорошо	-2508
▁необ	-2509
▁("	-2510
▁почему	-2511
▁ут	-2512
▁All	-2513
дова	-2514
▁уг	-2515
▁ха	-2516
щей	-2517
▁гро	-2518
▁death	-2519
orning	-2520
▁воло	-2521
лой	-2522
▁Ц	-2523
▁кла	-2524
atch	-2525
дил	-2526
3,	-2527
OU	-2528
▁reason	-2529
воря	-2530
ann	-2531
тели	-2532
кнул	-2533
чный	-2534
▁рус	-2535
▁кол	-2536
▁offic	-2537
son	-2538
▁within	-2539
▁место	-2540
▁ули	-2541
undred	-2542
▁спа	-2543
uthor	-2544
vernment	-2545
▁которого	-2546
ually	-2547
ui	-2548
▁Бу	-2549
▁именно	-2550
▁1.	-2551
▁уж	-2552
вало	-2553
▁book	-2554
▁своим	-2555
▁опре	-2556
IC	-2557
▁эту	-2558
ческого	-2559
▁cent	-2560
▁Ю	-2561
▁некото	-2562
▁назад	-2563
▁leg	-2564
▁оче	-2565
▁уз	-2566
2,	-2567
cul	-2568
rence	-2569
ony	-2570
▁equ	-2571
▁конечно	-2572
шие	-2573
ott	-2574
▁нау	-2575
▁понима	-2576
▁case	-2577
▁charact	-2578
▁слишком	-2579
▁матери	-2580
дох	-2581
omm	-2582
ган	-2583
▁бес	-2584
▁изве	-2585
чо	-2586
валась	-2587
▁sing	-2588
▁р	-2589
▁После	-2590
▁ide	-2591
iled	-2592
шим	-2593
itted	-2594
fic	-2595
▁тому	-2596
▁mean	-2597
▁means	-2598
▁большо	-2599
ут	-2600
его	-2601
▁whe	-2602
▁hundred	-2603
фо	-2604
ork	-2605
▁согла	-2606
▁способ	-2607
рил	-2608
жей	-2609
▁white	-2610
▁fall	-2611
ску	-2612
▁запа	-2613
них	-2614
бор	-2615
вле	-2616
▁Однако	-2617
шно	-2618
gen	-2619
▁дра	-2620
▁одна	-2621
fully	-2622
▁Су	-2623
▁pas	-2624
▁often	-2625
▁coll	-2626
▁ill	-2627
ети	-2628
вшего	-2629
▁Sp	-2630
▁Алек	-2631
▁ou	-2632
▁second	-2633
шку	-2634
▁morning	-2635
▁долго	-2636
юсь	-2637
alt	-2638
▁dev	-2639
ствие	-2640
▁особ	-2641
tered	-2642
tt	-2643
▁produ	-2644
▁стран	-2645
ED	-2646
▁явля	-2647
ший	-2648
▁впере	-2649
▁Con	-2650
▁partic	-2651
писа	-2652
▁свер	-2653
----	-2654
▁children	-2655
▁money	-2656
▁ночь	-2657
чных	-2658
ery	-2659
▁затем	-2660
▁должен	-2661
▁уго	-2662
▁ще	-2663
▁распо	-2664
▁cir	-2665
▁gent	-2666
mb	-2667
цов	-2668
▁includ	-2669
read	-2670
ais	-2671
ides	-2672
нк	-2673
▁zij	-2674
lack	-2675
валось	-2676
▁деся	-2677
▁жа	-2678
▁одной	-2679
▁order	-2680
ND	-2681
▁куда	-2682
▁feet	-2683
ric	-2684
▁побе	-2685
кола	-2686
▁испо	-2687
▁прекра	-2688
тера	-2689
▁help	-2690
itions	-2691
▁прямо	-2692
щения	-2693
▁turned	-2694
▁сторону	-2695
▁тро	-2696
▁заме	-2697
▁talk	-2698
It	-2699
тить	-2700
▁prof	-2701
ister	-2702
▁ги	-2703
того	-2704
кими	-2705
чные	-2706
▁Ба	-2707
ane	-2708
рова	-2709
ached	-2710
▁кры	-2711
ash	-2712
нами	-2713
▁головой	-2714
▁Пу	-2715
▁ten	-2716
uc	-2717
▁Пет	-2718
жали	-2719
ows	-2720
их	-2721
▁холо	-2722
тали	-2723
станов	-2724
▁ощу	-2725
нил	-2726
AL	-2727
▁sever	-2728
ским	-2729
In	-2730
▁expl	-2731
чать	-2732
▁спросил	-2733
тий	-2734
▁убе	-2735
▁began	-2736
ян	-2737
▁next	-2738
дро	-2739
шение	-2740
обще	-2741
рия	-2742
щение	-2743
тые	-2744
▁thus	-2745
▁опа	-2746
▁direct	-2747
onder	-2748
▁agreement	-2749
▁лучше	-2750
▁показ	-2751
ница	-2752
▁стороны	-2753
▁Ре	-2754
range	-2755
ized	-2756
day	-2757
▁нему	-2758
▁view	-2759
▁pleas	-2760
лови	-2761
нения	-2762
▁созда	-2763
▁Теперь	-2764
▁pour	-2765
▁Z	-2766
гов	-2767
круг	-2768
▁необходи	-2769
▁этим	-2770
ждения	-2771
▁обна	-2772
rie	-2773
▁import	-2774
щих	-2775
енное	-2776
▁pay	-2777
II	-2778
▁felt	-2779
▁глав	-2780
ames	-2781
▁together	-2782
▁general	-2783
рок	-2784
ющей	-2785
▁проис	-2786
▁Her	-2787
▁till	-2788
сут	-2789
▁sun	-2790
na	-2791
хра	-2792
ued	-2793
ктор	-2794
ural	-2795
▁author	-2796
oke	-2797
▁walk	-2798
тами	-2799
▁princi	-2800
▁нужно	-2801
чита	-2802
omp	-2803
▁pain	-2804
▁совершенно	-2805
▁Ар	-2806
▁hope	-2807
▁swe	-2808
▁true	-2809
ющего	-2810
▁conc	-2811
by	-2812
▁post	-2813
▁зву	-2814
▁двух	-2815
рик	-2816
щем	-2817
▁fre	-2818
▁dark	-2819
ент	-2820
▁How	-2821
чик	-2822
▁tri	-2823
▁мя	-2824
▁вет	-2825
▁мой	-2826
нули	-2827
41	-2828
▁язы	-2829
гре	-2830
▁появи	-2831
▁mer	-2832
▁human	-2833
▁сна	-2834
▁Лю	-2835
лены	-2836
ссо	-2837
▁med	-2838
▁cap	-2839
▁Is	-2840
▁received	-2841
▁её	-2842
ges	-2843
▁character	-2844
▁poor	-2845
▁Pr	-2846
▁вид	-2847
▁сказала	-2848
▁sure	-2849
сила	-2850
▁mis	-2851
outh	-2852
▁forth	-2853
▁abs	-2854
lu	-2855
▁Ста	-2856
вольно	-2857
▁object	-2858
▁отли	-2859
▁above	-2860
▁Ge	-2861
▁сред	-2862
gth	-2863
▁strong	-2864
▁question	-2865
▁сти	-2866
hy	-2867
▁wife	-2868
▁effect	-2869
▁myself	-2870
anger	-2871
▁гото	-2872
urs	-2873
▁12	-2874
юда	-2875
▁eas	-2876
arm	-2877
▁стро	-2878
▁run	-2879
▁Потом	-2880
used	-2881
▁bes	-2882
ature	-2883
▁deep	-2884
▁round	-2885
▁spirit	-2886
▁sign	-2887
▁passed	-2888
▁Will	-2889
ready	-2890
orts	-2891
хов	-2892
▁могла	-2893
ok	-2894
▁мину	-2895
▁play	-2896
▁чуть	-2897
▁навер	-2898
iving	-2899
▁king	-2900
▁хозя	-2901
▁рез	-2902
▁огром	-2903
▁With	-2904
▁sol	-2905
▁оде	-2906
рин	-2907
▁све	-2908
ccess	-2909
гру	-2910
▁осно	-2911
wer	-2912
▁осо	-2913
▁sle	-2914
▁main	-2915
▁different	-2916
▁several	-2917
▁respect	-2918
▁живо	-2919
ek	-2920
▁спра	-2921
вета	-2922
ваясь	-2923
▁такое	-2924
▁ум	-2925
cri	-2926
ists	-2927
▁одного	-2928
▁possess	-2929
▁sum	-2930
▁11	-2931
кам	-2932
▁town	-2933
▁nature	-2934
▁lay	-2935
ety	-2936
ring	-2937
нер	-2938
rop	-2939
,'	-2940
▁Lord	-2941
ел	-2942
▁perm	-2943
▁fire	-2944
arch	-2945
▁voice	-2946
▁силь	-2947
шее	-2948
лые	-2949
▁гля	-2950
▁Sir	-2951
▁org	-2952
▁кажды	-2953
ета	-2954
▁stood	-2955
держа	-2956
▁air	-2957
▁regard	-2958
▁увер	-2959
▁following	-2960
мери	-2961
▁собира	-2962
рот	-2963
▁взгляд	-2964
▁dans	-2965
▁Лу	-2966
▁дале	-2967
▁bra	-2968
щую	-2969
▁груп	-2970
рт	-2971
▁dest	-2972
кти	-2973
▁случае	-2974
▁Ру	-2975
ила	-2976
нали	-2977
еть	-2978
».	-2979
доб	-2980
iterary	-2981
▁Бы	-2982
▁anything	-2983
ческих	-2984
▁объяс	-2985
▁Мне	-2986
▁pat	-2987
▁ground	-2988
рав	-2989
▁заня	-2990
unt	-2991
▁подоб	-2992
▁доста	-2993
ape	-2994
▁common	-2995
rance	-2996
▁20	-2997
▁назы	-2998
▁short	-2999
▁By	-3000
▁ними	-3001
▁проти	-3002
▁свобо	-3003
lle	-3004
cious	-3005
щие	-3006
сить	-3007
▁других	-3008
▁doubt	-3009
▁says	-3010
▁Sh	-3011
хом	-3012
▁bar	-3013
▁две	-3014
AM	-3015
orth	-3016
▁itself	-3017
щего	-3018
▁подум	-3019
▁pap	-3020
▁всю	-3021
гом	-3022
eth	-3023
fort	-3024
▁193	-3025
ying	-3026
rench	-3027
▁закры	-3028
▁circ	-3029
чного	-3030
▁настоя	-3031
▁мыс	-3032
TER	-3033
▁alone	-3034
▁места	-3035
▁Germ	-3036
▁along	-3037
5,	-3038
мом	-3039
енера	-3040
chen	-3041
▁known	-3042
▁уд	-3043
▁gentle	-3044
▁друга	-3045
▁prep	-3046
нулись	-3047
▁немного	-3048
der	-3049
▁действительно	-3050
▁already	-3051
▁Car	-3052
▁fort	-3053
▁сооб	-3054
▁either	-3055
вез	-3056
ющим	-3057
док	-3058
▁знаю	-3059
▁образом	-3060
▁дерев	-3061
шать	-3062
▁дня	-3063
▁бле	-3064
▁увидел	-3065
вление	-3066
▁times	-3067
▁голос	-3068
лага	-3069
два	-3070
▁dom	-3071
▁наконец	-3072
▁Rom	-3073
▁believe	-3074
▁сп	-3075
нце	-3076
▁конце	-3077
▁least	-3078
ить	-3079
▁six	-3080
enty	-3081
▁оно	-3082
aar	-3083
▁treat	-3084
▁ir	-3085
▁eng	-3086
40	-3087
▁cou	-3088
чая	-3089
▁широ	-3090
ель	-3091
▁appear	-3092
чат	-3093
рые	-3094
▁наз	-3095
▁забы	-3096
альные	-3097
▁herself	-3098
dden	-3099
кал	-3100
ille	-3101
▁непри	-3102
▁city	-3103
▁girl	-3104
ational	-3105
oon	-3106
стов	-3107
aint	-3108
ступа	-3109
ament	-3110
▁ци	-3111
▁fur	-3112
▁meet	-3113
▁сего	-3114
▁зада	-3115
▁ге	-3116
▁women	-3117
▁ужа	-3118
сторо	-3119
рави	-3120
ience	-3121
▁хотел	-3122
▁disp	-3123
▁равно	-3124
ina	-3125
overed	-3126
▁div	-3127
▁спу	-3128
коло	-3129
▁видел	-3130
▁стало	-3131
▁никто	-3132
рами	-3133
▁close	-3134
▁ноги	-3135
▁стара	-3136
▁помощ	-3137
ustr	-3138
ster	-3139
aven	-3140
▁казалось	-3141
ination	-3142
oint	-3143
▁speak	-3144
▁body	-3145
▁пора	-3146
ций	-3147
enn	-3148
▁разви	-3149
все	-3150
▁laws	-3151
▁obser	-3152
ley	-3153
▁уни	-3154
▁mere	-3155
▁которую	-3156
illed	-3157
▁Только	-3158
▁беспо	-3159
▁during	-3160
▁bur	-3161
▁вокруг	-3162
ues	-3163
кус	-3164
▁start	-3165
жил	-3166
так	-3167
▁writ	-3168
▁perhaps	-3169
▁самом	-3170
▁trou	-3171
▁Arch	-3172
альной	-3173
▁сама	-3174
▁success	-3175
crib	-3176
▁Росси	-3177
▁tou	-3178
льзя	-3179
▁red	-3180
раб	-3181
▁стол	-3182
▁CH	-3183
▁port	-3184
▁Go	-3185
▁харак	-3186
▁скры	-3187
▁поме	-3188
▁лица	-3189
ices	-3190
▁Раз	-3191
точно	-3192
▁lim	-3193
▁fav	-3194
стран	-3195
4,	-3196
▁hist	-3197
▁слыш	-3198
вшей	-3199
--"	-3200
куда	-3201
▁sound	-3202
▁офи	-3203
▁дум	-3204
▁спокой	-3205
▁bed	-3206
▁wait	-3207
▁мг	-3208
шем	-3209
дем	-3210
▁stra	-3211
бер	-3212
▁hear	-3213
▁мир	-3214
доро	-3215
▁purp	-3216
вить	-3217
ницы	-3218
▁lead	-3219
▁My	-3220
тых	-3221
гие	-3222
10	-3223
▁призна	-3224
▁grand	-3225
iful	-3226
▁sold	-3227
▁mark	-3228
ственной	-3229
lf	-3230
ousand	-3231
вин	-3232
itten	-3233
resent	-3234
▁начал	-3235
▁Char	-3236
▁business	-3237
▁потер	-3238
ality	-3239
пор	-3240
▁понял	-3241
▁опять	-3242
▁Ed	-3243
гал	-3244
▁sudden	-3245
▁мало	-3246
let	-3247
таки	-3248
нах	-3249
▁trad	-3250
нуться	-3251
чали	-3252
▁understand	-3253
ятно	-3254
▁ru	-3255
тин	-3256
▁глубо	-3257
▁England	-3258
▁точно	-3259
ey	-3260
▁радо	-3261
судар	-3262
▁gone	-3263
SE	-3264
▁наблю	-3265
▁ut	-3266
ivid	-3267
▁stud	-3268
▁dat	-3269
▁особенно	-3270
owed	-3271
▁prot	-3272
▁ответил	-3273
▁command	-3274
▁Ph	-3275
▁dri	-3276
▁Par	-3277
▁stru	-3278
ствия	-3279
тился	-3280
ai	-3281
▁представи	-3282
▁mid	-3283
▁rev	-3284
▁mag	-3285
▁таким	-3286
▁truth	-3287
▁смы	-3288
▁accord	-3289
▁unc	-3290
▁момент	-3291
▁vi	-3292
lo	-3293
▁ori	-3294
▁ради	-3295
▁предпо	-3296
uted	-3297
▁creat	-3298
▁почув	-3299
▁letter	-3300
рез	-3301
▁clear	-3302
▁сегодня	-3303
▁si	-3304
рит	-3305
asion	-3306
42	-3307
▁Га	-3308
▁became	-3309
▁thousand	-3310
▁pract	-3311
▁приходи	-3312
цей	-3313
▁поз	-3314
▁совет	-3315
▁val	-3316
▁пись	-3317
хе	-3318
▁cal	-3319
рет	-3320
▁particular	-3321
▁sn	-3322
лег	-3323
ney	-3324
▁возвра	-3325
тельный	-3326
that	-3327
▁фо	-3328
лых	-3329
▁любов	-3330
ior	-3331
▁деле	-3332
TH	-3333
▁тон	-3334
▁выпол	-3335
LE	-3336
▁jud	-3337
▁fut	-3338
тие	-3339
чин	-3340
хот	-3341
icense	-3342
▁неме	-3343
▁therefore	-3344
▁black	-3345
▁которое	-3346
▁сделать	-3347
нт	-3348
9;	-3349
mp	-3350
alth	-3351
▁account	-3352
▁remem	-3353
▁exam	-3354
▁enc	-3355
ium	-3356
нев	-3357
▁игра	-3358
ствует	-3359
▁самого	-3360
ING	-3361
RO	-3362
▁скоро	-3363
»,	-3364
wh	-3365
ploy	-3366
▁поро	-3367
8;	-3368
ics	-3369
▁кам	-3370
▁diffic	-3371
▁lab	-3372
for	-3373
▁ца	-3374
▁Ne	-3375
medi	-3376
▁thy	-3377
сон	-3378
▁Ad	-3379
▁четы	-3380
ormation	-3381
▁express	-3382
тец	-3383
▁except	-3384
▁Do	-3385
льта	-3386
▁Co	-3387
кому	-3388
▁sea	-3389
▁пода	-3390
тру	-3391
▁сист	-3392
iam	-3393
▁French	-3394
▁серд	-3395
ником	-3396
▁руко	-3397
lect	-3398
▁Ки	-3399
▁sit	-3400
▁dead	-3401
чным	-3402
app	-3403
чей	-3404
▁Сер	-3405
bert	-3406
▁ино	-3407
▁собра	-3408
▁отве	-3409
▁arri	-3410
▁среди	-3411
▁II	-3412
▁чувство	-3413
▁стоял	-3414
▁внут	-3415
▁exper	-3416
idence	-3417
▁manner	-3418
▁фу	-3419
▁оби	-3420
cing	-3421
▁thou	-3422
▁held	-3423
plied	-3424
рах	-3425
▁глаз	-3426
гами	-3427
▁expect	-3428
▁иде	-3429
▁части	-3430
gr	-3431
▁попро	-3432
▁месте	-3433
uck	-3434
▁мысли	-3435
▁possible	-3436
▁indeed	-3437
▁обя	-3438
▁friends	-3439
ями	-3440
▁вообще	-3441
▁ii	-3442
nder	-3443
▁mor	-3444
6,	-3445
ified	-3446
▁роди	-3447
тельной	-3448
лок	-3449
ION	-3450
сал	-3451
влен	-3452
ette	-3453
▁пять	-3454
▁become	-3455
▁remark	-3456
ghter	-3457
нный	-3458
sp	-3459
▁dear	-3460
▁parag	-3461
▁край	-3462
▁мгнов	-3463
ountain	-3464
▁прежде	-3465
val	-3466
▁access	-3467
br	-3468
▁whether	-3469
▁stat	-3470
▁стали	-3471
шлось	-3472
▁family	-3473
▁Ca	-3474
▁Может	-3475
▁город	-3476
▁prob	-3477
▁минут	-3478
ils	-3479
▁wish	-3480
▁paragraph	-3481
▁разли	-3482
▁neg	-3483
альных	-3484
olog	-3485
▁leave	-3486
▁посте	-3487
сит	-3488
▁One	-3489
тая	-3490
▁live	-3491
▁Пер	-3492
▁бан	-3493
CH	-3494
RE	-3495
▁неза	-3496
▁яр	-3497
▁ото	-3498
▁говорит	-3499
▁противо	-3500
▁fair	-3501
▁Ди	-3502
iers	-3503
лета	-3504
кро	-3505
1,	-3506
кова	-3507
▁Му	-3508
▁представля	-3509
лик	-3510
деля	-3511
▁gre	-3512
tempt	-3513
▁origin	-3514
▁вперед	-3515
7;	-3516
тии	-3517
▁тыся	-3518
▁learn	-3519
ческие	-3520
43	-3521
iment	-3522
▁пой	-3523
▁Никола	-3524
He	-3525
▁хва	-3526
▁King	-3527
ссе	-3528
▁исче	-3529
▁медленно	-3530
казал	-3531
▁маль	-3532
▁appro	-3533
ising	-3534
мов	-3535
▁коло	-3536
iar	-3537
ема	-3538
▁bring	-3539
▁сом	-3540
▁Че	-3541
рее	-3542
▁говорил	-3543
▁employ	-3544
▁mus	-3545
▁жу	-3546
ored	-3547
▁цен	-3548
рый	-3549
▁dut	-3550
гии	-3551
owers	-3552
▁Об	-3553
▁fear	-3554
жении	-3555
ровать	-3556
или	-3557
ize	-3558
▁зако	-3559
▁созна	-3560
ards	-3561
▁делать	-3562
▁cause	-3563
▁Ma	-3564
▁Ри	-3565
гляды	-3566
▁obtain	-3567
▁хоть	-3568
▁органи	-3569
вен	-3570
▁кого	-3571
▁глазами	-3572
▁тело	-3573
▁comple	-3574
bs	-3575
▁пово	-3576
▁наро	-3577
▁af	-3578
▁попыт	-3579
лия	-3580
▁проб	-3581
What	-3582
чай	-3583
▁Literary	-3584
▁л	-3585
▁Ин	-3586
мол	-3587
angu	-3588
▁super	-3589
ik	-3590
ront	-3591
▁master	-3592
soci	-3593
ющее	-3594
▁wild	-3595
еры	-3596
▁Now	-3597
лан	-3598
▁говоря	-3599
▁дом	-3600
itude	-3601
lic	-3602
▁begin	-3603
▁wood	-3604
▁стала	-3605
дной	-3606
els	-3607
▁длин	-3608
erv	-3609
▁Под	-3610
тон	-3611
▁бое	-3612
▁sort	-3613
▁двери	-3614
▁tend	-3615
band	-3616
▁золо	-3617
▁Ду	-3618
▁Ло	-3619
цем	-3620
ler	-3621
▁grow	-3622
7,	-3623
▁протя	-3624
▁квар	-3625
▁дел	-3626
over	-3627
▁earth	-3628
▁могут	-3629
▁защи	-3630
▁hab	-3631
жит	-3632
▁Се	-3633
note	-3634
▁рукой	-3635
рить	-3636
стру	-3637
димо	-3638
▁напо	-3639
▁Sch	-3640
дума	-3641
side	-3642
▁mot	-3643
ex	-3644
ray	-3645
▁часто	-3646
▁loc	-3647
lled	-3648
▁капи	-3649
▁уча	-3650
ingly	-3651
▁дея	-3652
▁меся	-3653
▁Archive	-3654
▁каждый	-3655
▁exist	-3656
тельства	-3657
▁Пере	-3658
ческий	-3659
▁hus	-3660
▁окон	-3661
CT	-3662
▁cost	-3663
бри	-3664
▁пожал	-3665
▁behind	-3666
▁возра	-3667
выми	-3668
щее	-3669
▁making	-3670
▁intell	-3671
▁тво	-3672
▁relig	-3673
▁immedi	-3674
▁Of	-3675
▁случай	-3676
▁om	-3677
▁дальше	-3678
▁арми	-3679
▁around	-3680
rying	-3681
▁должно	-3682
▁сами	-3683
новь	-3684
▁Моск	-3685
▁visit	-3686
arent	-3687
▁могли	-3688
▁Анд	-3689
▁brother	-3690
▁La	-3691
iously	-3692
amed	-3693
▁perform	-3694
▁упра	-3695
▁нару	-3696
▁lost	-3697
▁Воз	-3698
▁своем	-3699
▁compl	-3700
▁отправи	-3701
▁plus	-3702
▁Se	-3703
▁why	-3704
▁polit	-3705
▁окру	-3706
ours	-3707
▁вопрос	-3708
▁государ	-3709
▁month	-3710
ьез	-3711
▁мной	-3712
▁закон	-3713
way	-3714
//	-3715
▁American	-3716
▁едва	-3717
▁поко	-3718
▁mem	-3719
And	-3720
▁party	-3721
полне	-3722
чает	-3723
▁foot	-3724
▁ого	-3725
▁past	-3726
15	-3727
utes	-3728
000	-3729
▁другие	-3730
▁ад	-3731
▁dro	-3732
19	-3733
▁какие	-3734
sequ	-3735
▁five	-3736
▁госпо	-3737
▁году	-3738
▁нельзя	-3739
▁road	-3740
нять	-3741
ат	-3742
щё	-3743
▁Geor	-3744
▁бал	-3745
▁Кон	-3746
▁давно	-3747
▁той	-3748
ald	-3749
един	-3750
ялся	-3751
uct	-3752
aient	-3753
▁paid	-3754
▁выгля	-3755
цами	-3756
▁agree	-3757
▁вспомни	-3758
▁cut	-3759
сен	-3760
EL	-3761
чера	-3762
▁cas	-3763
▁lady	-3764
▁вну	-3765
▁kept	-3766
сед	-3767
▁13	-3768
inary	-3769
чилось	-3770
▁sense	-3771
▁Зна	-3772
ining	-3773
▁хотелось	-3774
lace	-3775
▁кив	-3776
▁self	-3777
▁wall	-3778
▁неболь	-3779
нувшись	-3780
▁Для	-3781
рий	-3782
▁net	-3783
▁fine	-3784
though	-3785
втра	-3786
co	-3787
▁зло	-3788
▁един	-3789
▁гре	-3790
ответ	-3791
ootnote	-3792
▁Ее	-3793
▁заклю	-3794
нные	-3795
icht	-3796
▁солда	-3797
dle	-3798
роде	-3799
ots	-3800
тым	-3801
▁class	-3802
▁wonder	-3803
▁постоя	-3804
▁выс	-3805
нял	-3806
oor	-3807
зульта	-3808
ременно	-3809
стом	-3810
▁специ	-3811
▁necessary	-3812
▁мене	-3813
▁молча	-3814
▁beautiful	-3815
AS	-3816
▁Кар	-3817
AP	-3818
щим	-3819
▁able	-3820
▁однако	-3821
▁associ	-3822
▁lie	-3823
нам	-3824
▁line	-3825
▁Je	-3826
▁individ	-3827
▁этому	-3828
Footnote	-3829
ttp	-3830
://	-3831
▁посмотрел	-3832
▁30	-3833
▁Фе	-3834
▁узна	-3835
няя	-3836
▁copyright	-3837
▁enem	-3838
▁часть	-3839
жо	-3840
▁tro	-3841
eneral	-3842
▁бума	-3843
8,	-3844
▁отра	-3845
матри	-3846
▁писа	-3847
▁проце	-3848
возь	-3849
iding	-3850
▁Fran	-3851
▁accept	-3852
ige	-3853
дино	-3854
isf	-3855
▁такие	-3856
But	-3857
▁age	-3858
▁ship	-3859
▁written	-3860
ected	-3861
сной	-3862
body	-3863
ained	-3864
ledge	-3865
▁устро	-3866
дут	-3867
▁должны	-3868
aught	-3869
▁стар	-3870
itution	-3871
▁seems	-3872
пад	-3873
енных	-3874
▁looking	-3875
▁Sc	-3876
▁забо	-3877
▁192	-3878
▁необходимо	-3879
▁четыре	-3880
▁сделал	-3881
▁donations	-3882
пно	-3883
▁тихо	-3884
▁кроме	-3885
▁http	-3886
вай	-3887
▁After	-3888
▁demand	-3889
where	-3890
▁charge	-3891
ENT	-3892
▁sir	-3893
▁привы	-3894
▁occasion	-3895
мотря	-3896
▁неиз	-3897
UT	-3898
▁gen	-3899
▁темно	-3900
▁существо	-3901
▁acqu	-3902
▁пара	-3903
airs	-3904
▁plain	-3905
рых	-3906
▁Поч	-3907
cient	-3908
▁вновь	-3909
ries	-3910
хода	-3911
▁Dr	-3912
stem	-3913
▁работа	-3914
uro	-3915
▁Пи	-3916
▁учи	-3917
▁bene	-3918
▁мор	-3919
▁soul	-3920
▁ann	-3921
ваю	-3922
▁исчез	-3923
amb	-3924
▁решил	-3925
▁stri	-3926
▁story	-3927
bb	-3928
Jan	-3929
мыш	-3930
▁мар	-3931
шему	-3932
▁виде	-3933
шин	-3934
ples	-3935
▁дости	-3936
▁Not	-3937
▁pop	-3938
▁ze	-3939
▁ein	-3940
▁really	-3941
▁peace	-3942
▁полно	-3943
▁purpose	-3944
4;	-3945
▁ant	-3946
жной	-3947
вобо	-3948
▁неожида	-3949
aving	-3950
Oct	-3951
Oh	-3952
ilt	-3953
▁дро	-3954
▁стать	-3955
▁support	-3956
ждение	-3957
6;	-3958
▁опера	-3959
▁Col	-3960
рд	-3961
▁evening	-3962
▁котором	-3963
эн	-3964
▁прибли	-3965
бря	-3966
ories	-3967
▁opin	-3968
▁превра	-3969
▁менее	-3970
▁вско	-3971
▁force	-3972
Th	-3973
▁esc	-3974
▁заметил	-3975
▁bit	-3976
▁Кто	-3977
irt	-3978
вили	-3979
графи	-3980
сился	-3981
attle	-3982
12	-3983
50	-3984
arr	-3985
▁coming	-3986
▁вниз	-3987
▁low	-3988
енный	-3989
жить	-3990
▁меч	-3991
▁станови	-3992
ship	-3993
▁por	-3994
▁креп	-3995
▁зави	-3996
▁twenty	-3997
▁произо	-3998
▁contain	-3999
▁Ro	-4000
лла	-4001
▁gold	-4002
▁mur	-4003
вшая	-4004
▁_,	-4005
▁represent	-4006
▁произво	-4007
▁каби	-4008
▁front	-4009
va	-4010
▁individual	-4011
ptain	-4012
▁chief	-4013
▁Пре	-4014
▁пери	-4015
▁IN	-4016
▁судь	-4017
▁blood	-4018
▁Per	-4019
▁miles	-4020
▁туда	-4021
▁схва	-4022
▁200	-4023
чная	-4024
▁non	-4025
iod	-4026
тора	-4027
▁gro	-4028
ального	-4029
▁наи	-4030
▁14	-4031
itation	-4032
▁perfect	-4033
Mar	-4034
cript	-4035
▁первый	-4036
▁ещё	-4037
мах	-4038
▁кос	-4039
▁list	-4040
30	-4041
еру	-4042
▁удо	-4043
▁пя	-4044
ерк	-4045
▁Боль	-4046
▁сердце	-4047
ste	-4048
зь	-4049
▁безо	-4050
▁anim	-4051
▁imag	-4052
▁Тогда	-4053
icient	-4054
wered	-4055
▁испол	-4056
нной	-4057
тила	-4058
▁пыт	-4059
▁Ти	-4060
▁прос	-4061
▁result	-4062
▁ave	-4063
▁бога	-4064
нице	-4065
▁напря	-4066
кри	-4067
▁husband	-4068
пли	-4069
▁stre	-4070
ones	-4071
▁influ	-4072
▁dr	-4073
лена	-4074
ma	-4075
▁pie	-4076
▁sight	-4077
▁bound	-4078
▁зу	-4079
▁генера	-4080
чество	-4081
▁легко	-4082
▁Ведь	-4083
▁счита	-4084
▁government	-4085
▁хи	-4086
чие	-4087
▁quick	-4088
▁тан	-4089
▁близ	-4090
▁обяза	-4091
▁столь	-4092
orrow	-4093
ньше	-4094
well	-4095
▁женщина	-4096
эр	-4097
▁else	-4098
▁worth	-4099
▁обнаружи	-4100
ision	-4101
gy	-4102
elle	-4103
▁camp	-4104
▁результа	-4105
▁arms	-4106
тельным	-4107
▁fig	-4108
▁тай	-4109
▁nearly	-4110
▁испы	-4111
▁соответ	-4112
▁мень	-4113
▁faith	-4114
▁pict	-4115
▁replied	-4116
▁вполне	-4117
▁bad	-4118
лосо	-4119
▁id	-4120
▁jour	-4121
еди	-4122
лад	-4123
▁взял	-4124
▁дво	-4125
▁лоша	-4126
▁знает	-4127
▁towards	-4128
aged	-4129
нение	-4130
Yes	-4131
рения	-4132
▁commun	-4133
60	-4134
▁entire	-4135
▁шта	-4136
ждать	-4137
▁school	-4138
▁Гу	-4139
▁говорить	-4140
go	-4141
uff	-4142
▁followed	-4143
▁answered	-4144
▁Ex	-4145
▁профе	-4146
▁vill	-4147
▁неве	-4148
▁кори	-4149
▁These	-4150
IL	-4151
▁горя	-4152
зации	-4153
▁приго	-4154
▁шко	-4155
▁longer	-4156
▁later	-4157
▁early	-4158
ставил	-4159
▁Am	-4160
17	-4161
▁move	-4162
пример	-4163
▁cold	-4164
but	-4165
▁hur	-4166
▁раньше	-4167
▁значит	-4168
ume	-4169
antly	-4170
cially	-4171
▁ought	-4172
▁рай	-4173
▁spec	-4174
▁такого	-4175
▁фак	-4176
скому	-4177
▁sto	-4178
▁danger	-4179
inct	-4180
волю	-4181
альный	-4182
визи	-4183
санд	-4184
▁tax	-4185
▁mist	-4186
▁пришлось	-4187
▁Cl	-4188
5;	-4189
▁будут	-4190
▁further	-4191
▁знако	-4192
▁осу	-4193
▁всей	-4194
▁опусти	-4195
ush	-4196
▁мере	-4197
▁прин	-4198
чества	-4199
▁большой	-4200
▁thee	-4201
▁including	-4202
,-	-4203
▁sometimes	-4204
▁table	-4205
▁cried	-4206
тельные	-4207
▁lui	-4208
▁horse	-4209
жем	-4210
▁Кра	-4211
atic	-4212
▁повто	-4213
▁потре	-4214
▁period	-4215
гло	-4216
рев	-4217
лки	-4218
▁Or	-4219
▁гости	-4220
▁Man	-4221
▁priv	-4222
▁разо	-4223
▁pret	-4224
▁самой	-4225
▁dau	-4226
▁Фран	-4227
▁нена	-4228
▁idea	-4229
par	-4230
▁fil	-4231
▁запи	-4232
May	-4233
▁объя	-4234
iance	-4235
▁across	-4236
▁разу	-4237
меня	-4238
▁достаточно	-4239
▁From	-4240
▁уме	-4241
▁poet	-4242
zen	-4243
▁incre	-4244
▁slave	-4245
▁удиви	-4246
▁весе	-4247
жим	-4248
▁natural	-4249
▁eBooks	-4250
▁fif	-4251
▁Br	-4252
тах	-4253
▁стоит	-4254
▁position	-4255
гнул	-4256
62	-4257
▁France	-4258
▁slaves	-4259
▁вышел	-4260
▁руками	-4261
грам	-4262
usion	-4263
▁кажется	-4264
▁carried	-4265
▁довольно	-4266
▁удалось	-4267
вро	-4268
тей	-4269
uting	-4270
▁секу	-4271
▁circum	-4272
cks	-4273
yond	-4274
▁wel	-4275
cend	-4276
прав	-4277
▁одну	-4278
▁Затем	-4279
▁Qu	-4280
вшим	-4281
▁команди	-4282
ondon	-4283
9,	-4284
▁concern	-4285
▁sett	-4286
▁change	-4287
▁смотрел	-4288
▁начала	-4289
▁скло	-4290
ственный	-4291
жением	-4292
▁system	-4293
▁наши	-4294
▁является	-4295
▁сопро	-4296
▁Там	-4297
▁wat	-4298
▁answer	-4299
▁истори	-4300
▁returned	-4301
▁mountain	-4302
▁quar	-4303
▁моей	-4304
▁другу	-4305
▁hours	-4306
▁род	-4307
▁доб	-4308
▁сне	-4309
▁river	-4310
▁краси	-4311
анта	-4312
▁eye	-4313
▁шу	-4314
туа	-4315
дят	-4316
oes	-4317
18	-4318
▁таких	-4319
▁коле	-4320
gar	-4321
anged	-4322
тельного	-4323
rage	-4324
▁Им	-4325
▁strange	-4326
чиво	-4327
▁step	-4328
urope	-4329
ведения	-4330
▁von	-4331
тельности	-4332
▁York	-4333
▁извест	-4334
▁Джо	-4335
UR	-4336
скольку	-4337
честве	-4338
дки	-4339
rs	-4340
▁руках	-4341
ator	-4342
▁города	-4343
▁ожида	-4344
▁Еще	-4345
▁зая	-4346
▁former	-4347
▁25	-4348
стан	-4349
▁langu	-4350
▁сколько	-4351
форма	-4352
Apr	-4353
▁"_	-4354
▁крас	-4355
dom	-4356
лым	-4357
дите	-4358
rict	-4359
чами	-4360
▁William	-4361
▁sin	-4362
▁quiet	-4363
▁вклю	-4364
▁satisf	-4365
▁комнату	-4366
▁проблем	-4367
▁рассказы	-4368
▁подумал	-4369
жные	-4370
туры	-4371
▁pray	-4372
▁войны	-4373
енной	-4374
▁ready	-4375
oose	-4376
▁Hen	-4377
▁выз	-4378
ственного	-4379
ctor	-4380
сами	-4381
прочем	-4382
ham	-4383
▁кораб	-4384
дии	-4385
▁attempt	-4386
сок	-4387
▁Гер	-4388
шке	-4389
▁поэтому	-4390
ciety	-4391
▁услови	-4392
дный	-4393
енные	-4394
Sep	-4395
ехал	-4396
▁зе	-4397
▁гря	-4398
▁history	-4399
нику	-4400
Nov	-4401
itting	-4402
▁future	-4403
▁sugg	-4404
▁emb	-4405
▁кварти	-4406
▁Ab	-4407
▁cre	-4408
▁states	-4409
nde	-4410
ческая	-4411
▁squ	-4412
32	-4413
ному	-4414
▁пси	-4415
con	-4416
чке	-4417
▁reached	-4418
▁зво	-4419
▁big	-4420
▁lad	-4421
▁suggest	-4422
льзу	-4423
▁nous	-4424
▁cross	-4425
▁мои	-4426
▁лично	-4427
▁ran	-4428
под	-4429
ницу	-4430
▁Brit	-4431
▁determ	-4432
нных	-4433
▁viol	-4434
▁глазах	-4435
70	-4436
▁latter	-4437
▁field	-4438
aves	-4439
▁Ital	-4440
шед	-4441
emark	-4442
ложил	-4443
▁sal	-4444
чек	-4445
вли	-4446
aul	-4447
ям	-4448
▁начина	-4449
сят	-4450
▁sens	-4451
шал	-4452
там	-4453
▁оружи	-4454
mbl	-4455
▁шел	-4456
▁ST	-4457
дется	-4458
▁stren	-4459
▁desp	-4460
▁espe	-4461
▁army	-4462
▁причи	-4463
▁Ско	-4464
хать	-4465
ises	-4466
▁conv	-4467
зор	-4468
▁proceed	-4469
▁использо	-4470
▁deg	-4471
▁dog	-4472
▁niet	-4473
ett	-4474
▁hat	-4475
▁obl	-4476
▁смерти	-4477
бен	-4478
▁sweet	-4479
▁surpr	-4480
логи	-4481
▁серьез	-4482
▁Europe	-4483
▁искус	-4484
▁отец	-4485
▁ладо	-4486
olution	-4487
▁draw	-4488
▁fee	-4489
ческое	-4490
▁направи	-4491
▁мысль	-4492
▁получи	-4493
▁сере	-4494
▁восто	-4495
ital	-4496
▁hig	-4497
▁гром	-4498
Dec	-4499
▁imm	-4500
▁мира	-4501
▁send	-4502
над	-4503
▁Через	-4504
▁General	-4505
idge	-4506
▁als	-4507
▁secret	-4508
лед	-4509
▁Il	-4510
▁невоз	-4511
▁Гла	-4512
.)	-4513
▁сму	-4514
▁len	-4515
▁сюда	-4516
цией	-4517
▁физи	-4518
▁appeared	-4519
▁win	-4520
▁El	-4521
resh	-4522
▁газ	-4523
▁fellow	-4524
▁которым	-4525
▁соци	-4526
▁основ	-4527
▁жд	-4528
▁beyond	-4529
▁началь	-4530
▁estab	-4531
ваются	-4532
▁scar	-4533
hod	-4534
вшийся	-4535
▁какое	-4536
▁нашей	-4537
жели	-4538
ences	-4539
▁License	-4540
46	-4541
af	-4542
▁вздох	-4543
hern	-4544
▁каждо	-4545
дко	-4546
чены	-4547
▁пути	-4548
▁своими	-4549
▁feeling	-4550
OT	-4551
следо	-4552
▁относи	-4553
сторожно	-4554
▁Roman	-4555
▁aut	-4556
▁сил	-4557
нему	-4558
▁London	-4559
кли	-4560
бре	-4561
дали	-4562
▁приз	-4563
▁Конечно	-4564
▁heav	-4565
ipp	-4566
▁имеет	-4567
▁sleep	-4568
тельных	-4569
PW	-4570
▁домой	-4571
▁los	-4572
ops	-4573
▁воды	-4574
▁кров	-4575
▁пят	-4576
нимал	-4577
Jul	-4578
▁друз	-4579
▁church	-4580
▁иск	-4581
▁Александ	-4582
▁должна	-4583
▁остро	-4584
▁lau	-4585
▁break	-4586
▁сидел	-4587
▁внутрен	-4588
▁late	-4589
riage	-4590
▁prev	-4591
▁пыта	-4592
▁обычно	-4593
ствовать	-4594
▁каким	-4595
лая	-4596
▁Вер	-4597
дцати	-4598
▁Дже	-4599
▁State	-4600
1;	-4601
▁West	-4602
rem	-4603
ror	-4604
▁thir	-4605
▁build	-4606
▁товари	-4607
▁paper	-4608
ires	-4609
кать	-4610
ivil	-4611
▁Ему	-4612
нюю	-4613
▁вечер	-4614
▁persons	-4615
▁below	-4616
▁plan	-4617
▁eight	-4618
▁опу	-4619
▁(18	-4620
▁силы	-4621
▁led	-4622
Feb	-4623
fer	-4624
уй	-4625
rodu	-4626
▁моя	-4627
▁claim	-4628
roy	-4629
▁второй	-4630
▁attend	-4631
ously	-4632
▁сум	-4633
▁собы	-4634
▁корот	-4635
▁безу	-4636
▁требо	-4637
▁следует	-4638
▁property	-4639
▁элек	-4640
▁путь	-4641
▁слово	-4642
▁др	-4643
rupt	-4644
тельность	-4645
ogn	-4646
▁самое	-4647
▁Джей	-4648
дает	-4649
жных	-4650
жки	-4651
▁живот	-4652
▁occup	-4653
▁возник	-4654
eder	-4655
жный	-4656
▁tas	-4657
▁didn	-4658
ilos	-4659
▁delight	-4660
cher	-4661
▁волосы	-4662
▁pal	-4663
▁hill	-4664
▁court	-4665
▁разве	-4666
ustom	-4667
▁Здесь	-4668
▁трудно	-4669
▁Some	-4670
▁service	-4671
ствии	-4672
▁forg	-4673
кси	-4674
▁работы	-4675
▁ik	-4676
▁дней	-4677
гер	-4678
ante	-4679
play	-4680
▁мяг	-4681
▁circumst	-4682
▁Har	-4683
We	-4684
вей	-4685
нился	-4686
▁пото	-4687
▁сквозь	-4688
мый	-4689
▁усили	-4690
дили	-4691
▁won	-4692
▁Ха	-4693
▁pen	-4694
▁мимо	-4695
зать	-4696
гих	-4697
▁dream	-4698
erc	-4699
рабо	-4700
iff	-4701
▁Ste	-4702
ging	-4703
▁подоз	-4704
▁фрон	-4705
мана	-4706
aded	-4707
▁living	-4708
▁comply	-4709
тили	-4710
ilosop	-4711
▁музы	-4712
▁исклю	-4713
reg	-4714
тье	-4715
▁худо	-4716
13	-4717
ounded	-4718
what	-4719
CE	-4720
▁круп	-4721
PWH	-4722
тельное	-4723
ois	-4724
▁оказался	-4725
▁conn	-4726
оне	-4727
▁упо	-4728
гой	-4729
▁Даже	-4730
▁important	-4731
▁ал	-4732
▁сила	-4733
▁изу	-4734
▁понять	-4735
▁wit	-4736
▁внимание	-4737
▁деньги	-4738
▁Cong	-4739
▁соба	-4740
▁жел	-4741
45	-4742
reek	-4743
сл	-4744
гах	-4745
▁оши	-4746
▁22	-4747
ha	-4748
▁около	-4749
нки	-4750
▁ty	-4751
▁knowledge	-4752
▁право	-4753
cell	-4754
▁покры	-4755
vere	-4756
▁office	-4757
▁хра	-4758
▁твер	-4759
ivers	-4760
▁cast	-4761
▁hot	-4762
▁лест	-4763
▁En	-4764
дания	-4765
16	-4766
▁glad	-4767
▁forward	-4768
▁произнес	-4769
печат	-4770
▁breat	-4771
▁уста	-4772
▁подошел	-4773
шил	-4774
▁проя	-4775
тельство	-4776
▁счит	-4777
▁Mary	-4778
▁remember	-4779
ъез	-4780
ument	-4781
▁cra	-4782
ift	-4783
▁AND	-4784
▁аб	-4785
▁отнош	-4786
por	-4787
▁jo	-4788
жным	-4789
▁zu	-4790
▁slow	-4791
▁taking	-4792
▁прошло	-4793
▁Почему	-4794
мотри	-4795
▁ожи	-4796
ставить	-4797
▁continued	-4798
▁George	-4799
▁watch	-4800
▁уч	-4801
▁женщины	-4802
дам	-4803
hood	-4804
▁makes	-4805
▁часов	-4806
▁soft	-4807
▁груди	-4808
▁значи	-4809
ump	-4810
▁полити	-4811
wo	-4812
▁наш	-4813
▁**	-4814
▁отвер	-4815
llustr	-4816
ference	-4817
▁поверх	-4818
Well	-4819
ленные	-4820
▁воспо	-4821
альное	-4822
▁associated	-4823
▁mit	-4824
▁fight	-4825
чную	-4826
▁рука	-4827
▁Ге	-4828
йдет	-4829
▁meas	-4830
ortun	-4831
▁Mad	-4832
▁думал	-4833
наче	-4834
itary	-4835
▁attention	-4836
▁Мак	-4837
▁hun	-4838
▁Here	-4839
Aug	-4840
▁rose	-4841
щему	-4842
eness	-4843
номи	-4844
▁Pres	-4845
▁vous	-4846
gel	-4847
▁gard	-4848
▁России	-4849
мира	-4850
лев	-4851
▁195	-4852
yl	-4853
▁consequ	-4854
▁Поэ	-4855
▁especially	-4856
BER	-4857
▁далеко	-4858
ST	-4859
▁имя	-4860
ственных	-4861
▁год	-4862
ically	-4863
▁inqu	-4864
▁happy	-4865
▁Ст	-4866
▁probably	-4867
▁Ту	-4868
za	-4869
▁поза	-4870
▁преду	-4871
▁Ива	-4872
▁услыш	-4873
дан	-4874
ms	-4875
бку	-4876
ete	-4877
▁***	-4878
кля	-4879
▁died	-4880
aching	-4881
▁belong	-4882
▁zijn	-4883
грани	-4884
▁боя	-4885
▁пои	-4886
▁завтра	-4887
bor	-4888
▁посе	-4889
жай	-4890
▁suppose	-4891
like	-4892
▁ясно	-4893
▁corn	-4894
▁dam	-4895
▁everything	-4896
inn	-4897
▁duty	-4898
лка	-4899
▁length	-4900
еты	-4901
▁Fl	-4902
▁phys	-4903
▁contr	-4904
▁neither	-4905
▁куль	-4906
▁сохра	-4907
дами	-4908
▁ску	-4909
king	-4910
▁spoke	-4911
запно	-4912
▁мальчи	-4913
▁display	-4914
шек	-4915
▁heaven	-4916
кин	-4917
▁комп	-4918
▁кур	-4919
тую	-4920
▁землю	-4921
▁уст	-4922
▁trademark	-4923
bed	-4924
ген	-4925
▁заго	-4926
вшую	-4927
▁greater	-4928
надле	-4929
ike	-4930
▁фигу	-4931
▁мужчи	-4932
▁various	-4933
▁бой	-4934
▁placed	-4935
▁Tr	-4936
▁hair	-4937
▁opinion	-4938
▁сча	-4939
▁suddenly	-4940
▁взглядом	-4941
uit	-4942
▁vers	-4943
спи	-4944
вора	-4945
нется	-4946
OL	-4947
мым	-4948
reme	-4949
фон	-4950
▁поднял	-4951
▁ввер	-4952
ленных	-4953
rect	-4954
▁Em	-4955
▁liber	-4956
▁весьма	-4957
▁enj	-4958
▁Let	-4959
▁нор	-4960
▁тела	-4961
зил	-4962
▁шо	-4963
room	-4964
▁Тем	-4965
▁Наконец	-4966
▁убий	-4967
▁дево	-4968
▁lived	-4969
▁stay	-4970
ruct	-4971
▁Christian	-4972
▁поки	-4973
▁стру	-4974
ору	-4975
▁method	-4976
▁laid	-4977
ening	-4978
енность	-4979
IG	-4980
▁секре	-4981
▁Don	-4982
▁Pe	-4983
▁hij	-4984
▁May	-4985
That	-4986
RAN	-4987
▁минуту	-4988
▁годы	-4989
▁tout	-4990
▁toward	-4991
yn	-4992
oved	-4993
cht	-4994
▁provide	-4995
IV	-4996
▁утра	-4997
ственным	-4998
▁Кро	-4999
▁rich	-5000
дия	-5001
▁филосо	-5002
телем	-5003
гая	-5004
▁перио	-5005
▁присут	-5006
▁fan	-5007
▁пове	-5008
▁площа	-5009
▁Или	-5010
bre	-5011
▁мать	-5012
▁принадле	-5013
▁aan	-5014
▁знала	-5015
лит	-5016
▁although	-5017
▁утвер	-5018
▁сц	-5019
▁занима	-5020
пан	-5021
ole	-5022
▁permission	-5023
▁комнате	-5024
▁коридо	-5025
▁Ча	-5026
▁семь	-5027
тащи	-5028
▁борь	-5029
▁deal	-5030
▁измени	-5031
▁neigh	-5032
хло	-5033
▁напи	-5034
▁daughter	-5035
▁потеря	-5036
49	-5037
ILL	-5038
▁Gra	-5039
48	-5040
iling	-5041
частли	-5042
▁German	-5043
▁dit	-5044
▁RE	-5045
▁цвет	-5046
▁какая	-5047
▁pretty	-5048
▁path	-5049
▁литера	-5050
ходил	-5051
▁ago	-5052
cience	-5053
▁added	-5054
you	-5055
▁conce	-5056
таль	-5057
▁sie	-5058
▁пошел	-5059
пала	-5060
рыв	-5061
▁душе	-5062
▁добро	-5063
▁repe	-5064
pper	-5065
▁complete	-5066
het	-5067
бур	-5068
bers	-5069
▁23	-5070
▁знать	-5071
▁influence	-5072
алу	-5073
▁rap	-5074
with	-5075
СР	-5076
aff	-5077
▁mention	-5078
шить	-5079
ae	-5080
▁сильно	-5081
вшиеся	-5082
▁fast	-5083
ston	-5084
▁single	-5085
▁Кэ	-5086
▁das	-5087
▁стен	-5088
▁slavery	-5089
▁компа	-5090
вшихся	-5091
63	-5092
▁работу	-5093
алы	-5094
gu	-5095
ровал	-5096
▁enemy	-5097
ственное	-5098
▁исти	-5099
▁самый	-5100
▁доба	-5101
-2	-5102
▁такая	-5103
▁fix	-5104
▁кли	-5105
▁difficult	-5106
лку	-5107
▁трех	-5108
▁AN	-5109
▁идет	-5110
▁trees	-5111
тыми	-5112
▁none	-5113
▁своему	-5114
▁distance	-5115
▁unless	-5116
ппа	-5117
▁joy	-5118
▁горе	-5119
▁gutenberg	-5120
▁пример	-5121
▁геро	-5122
iction	-5123
нка	-5124
pond	-5125
▁иногда	-5126
знако	-5127
▁govern	-5128
▁describ	-5129
▁writing	-5130
▁пом	-5131
▁страш	-5132
itable	-5133
▁beauty	-5134
▁отца	-5135
▁попа	-5136
▁Тут	-5137
sc	-5138
▁27	-5139
▁сни	-5140
зма	-5141
▁avec	-5142
лете	-5143
▁entered	-5144
▁attack	-5145
▁island	-5146
▁поряд	-5147
▁конца	-5148
iver	-5149
ites	-5150
▁лице	-5151
anced	-5152
▁поце	-5153
▁пригла	-5154
▁require	-5155
▁одним	-5156
acy	-5157
либо	-5158
▁wrong	-5159
▁inn	-5160
раль	-5161
мерикан	-5162
▁гер	-5163
щал	-5164
▁outside	-5165
▁sufficient	-5166
енности	-5167
iety	-5168
▁зо	-5169
тала	-5170
unte	-5171
▁найти	-5172
жку	-5173
▁зас	-5174
мая	-5175
первые	-5176
amm	-5177
нуло	-5178
▁minutes	-5179
▁низ	-5180
▁doing	-5181
рос	-5182
ющая	-5183
▁fat	-5184
▁предо	-5185
▁28	-5186
▁сим	-5187
▁твор	-5188
▁мистер	-5189
▁Government	-5190
lling	-5191
▁установ	-5192
▁Bar	-5193
onn	-5194
чное	-5195
▁выше	-5196
гать	-5197
▁Me	-5198
чается	-5199
ively	-5200
▁фран	-5201
▁видно	-5202
▁civil	-5203
oir	-5204
gress	-5205
мента	-5206
виа	-5207
плы	-5208
▁Paris	-5209
▁enjoy	-5210
▁воск	-5211
гали	-5212
▁bear	-5213
▁Поэтому	-5214
▁изобра	-5215
night	-5216
▁глуби	-5217
▁внеш	-5218
Jun	-5219
мые	-5220
▁улыбнулся	-5221
▁Was	-5222
ложен	-5223
▁энер	-5224
hel	-5225
▁неожиданно	-5226
▁кабинет	-5227
▁rul	-5228
atever	-5229
стья	-5230
▁Mor	-5231
▁wanted	-5232
▁educ	-5233
▁ны	-5234
▁week	-5235
▁вдо	-5236
ruction	-5237
лья	-5238
▁Rome	-5239
▁comes	-5240
▁свете	-5241
lla	-5242
▁успо	-5243
▁губы	-5244
▁sad	-5245
рым	-5246
тое	-5247
тной	-5248
▁пес	-5249
пя	-5250
▁вернулся	-5251
▁trib	-5252
гро	-5253
▁Сейчас	-5254
▁voor	-5255
▁mill	-5256
вила	-5257
▁language	-5258
asp	-5259
▁top	-5260
▁час	-5261
▁:	-5262
▁crow	-5263
▁народ	-5264
▁prison	-5265
▁мра	-5266
ремя	-5267
▁CHAP	-5268
▁известно	-5269
▁compan	-5270
arp	-5271
uly	-5272
ант	-5273
▁receive	-5274
ager	-5275
▁organ	-5276
▁Jack	-5277
нин	-5278
▁opportun	-5279
▁доку	-5280
носи	-5281
тья	-5282
leg	-5283
▁вовсе	-5284
▁разре	-5285
▁report	-5286
▁addition	-5287
▁North	-5288
▁vict	-5289
ww	-5290
▁easy	-5291
▁рот	-5292
▁prevent	-5293
▁separ	-5294
▁свидет	-5295
▁информа	-5296
▁характер	-5297
www	-5298
▁англи	-5299
47	-5300
тря	-5301
▁немец	-5302
▁девушка	-5303
▁condition	-5304
▁коли	-5305
▁связи	-5306
▁прибы	-5307
▁поскольку	-5308
▁Henry	-5309
▁(_	-5310
По	-5311
лье	-5312
▁26	-5313
дев	-5314
▁преступ	-5315
пали	-5316
▁pun	-5317
пил	-5318
след	-5319
мена	-5320
▁50	-5321
▁wide	-5322
▁copies	-5323
▁скорее	-5324
▁bright	-5325
▁воро	-5326
▁Сто	-5327
дила	-5328
▁situ	-5329
▁мест	-5330
рис	-5331
▁Lou	-5332
▁hast	-5333
jo	-5334
OM	-5335
hold	-5336
▁fra	-5337
▁opened	-5338
▁подго	-5339
▁мерт	-5340
▁вызы	-5341
▁saying	-5342
acher	-5343
▁удоволь	-5344
AD	-5345
бви	-5346
▁refund	-5347
ступил	-5348
▁хочу	-5349
▁захо	-5350
▁Oh	-5351
▁Джу	-5352
▁generally	-5353
енном	-5354
▁pet	-5355
▁жить	-5356
ствовала	-5357
▁action	-5358
▁наших	-5359
▁спраши	-5360
▁gentleman	-5361
лова	-5362
▁wis	-5363
▁conduct	-5364
velop	-5365
isted	-5366
▁счет	-5367
▁осторожно	-5368
▁Why	-5369
гры	-5370
▁Пе	-5371
▁Мэ	-5372
▁меньше	-5373
teen	-5374
inc	-5375
▁поле	-5376
ope	-5377
▁успел	-5378
/2	-5379
хнул	-5380
▁mas	-5381
▁ран	-5382
▁испу	-5383
ique	-5384
▁крова	-5385
▁освобо	-5386
▁хозяй	-5387
▁зам	-5388
▁земле	-5389
ленной	-5390
▁crit	-5391
AG	-5392
рина	-5393
▁mal	-5394
доров	-5395
▁вверх	-5396
▁кивнул	-5397
now	-5398
▁ибо	-5399
▁domain	-5400
бель	-5401
▁decla	-5402
▁хол	-5403
▁доме	-5404
▁tried	-5405
ead	-5406
▁нами	-5407
▁strength	-5408
▁резко	-5409
▁Congress	-5410
▁Rep	-5411
ственные	-5412
wise	-5413
рам	-5414
▁истории	-5415
▁поля	-5416
lem	-5417
▁0	-5418
стые	-5419
▁ses	-5420
▁изо	-5421
▁правда	-5422
▁pleasure	-5423
вок	-5424
23	-5425
зем	-5426
роятно	-5427
▁roy	-5428
имо	-5429
▁продолжал	-5430
ech	-5431
бами	-5432
сности	-5433
hip	-5434
енин	-5435
шой	-5436
▁South	-5437
▁chance	-5438
▁огля	-5439
▁convers	-5440
▁recogn	-5441
▁плохо	-5442
▁коми	-5443
образ	-5444
▁другом	-5445
ency	-5446
стала	-5447
▁одном	-5448
▁youth	-5449
▁явно	-5450
▁голу	-5451
▁бук	-5452
▁sus	-5453
olute	-5454
▁anx	-5455
титься	-5456
▁степ	-5457
▁возможность	-5458
▁жур	-5459
▁десять	-5460
▁CHAPTER	-5461
▁откуда	-5462
рому	-5463
▁company	-5464
iqu	-5465
▁certainly	-5466
▁information	-5467
▁одино	-5468
▁выбра	-5469
▁21	-5470
седа	-5471
ule	-5472
▁beginning	-5473
ked	-5474
▁оконча	-5475
▁24	-5476
iel	-5477
▁political	-5478
▁умер	-5479
bles	-5480
▁зад	-5481
▁famil	-5482
шкой	-5483
▁пти	-5484
▁обу	-5485
▁Хотя	-5486
▁моего	-5487
▁hop	-5488
▁фото	-5489
▁imposs	-5490
▁cru	-5491
▁merely	-5492
ленный	-5493
▁глядя	-5494
▁детей	-5495
IM	-5496
▁держа	-5497
сный	-5498
▁полови	-5499
▁спокойно	-5500
▁Бер	-5501
ushed	-5502
▁according	-5503
ford	-5504
▁trust	-5505
▁дивизи	-5506
▁months	-5507
▁любви	-5508
▁carry	-5509
альным	-5510
▁лицом	-5511
hib	-5512
▁вспо	-5513
▁расска	-5514
▁ситуа	-5515
▁содержа	-5516
▁внимания	-5517
фу	-5518
жало	-5519
▁scarce	-5520
▁концов	-5521
сков	-5522
ession	-5523
вид	-5524
▁часа	-5525
▁impro	-5526
▁comfort	-5527
▁уров	-5528
▁ног	-5529
ables	-5530
▁tot	-5531
пля	-5532
▁parts	-5533
вяз	-5534
▁183	-5535
89	-5536
клады	-5537
тка	-5538
▁болез	-5539
▁Эти	-5540
▁обер	-5541
▁OR	-5542
▁нрави	-5543
мых	-5544
head	-5545
▁Ver	-5546
▁самым	-5547
▁проводи	-5548
rer	-5549
▁вроде	-5550
ounds	-5551
80	-5552
▁проз	-5553
omen	-5554
vert	-5555
▁weak	-5556
▁letters	-5557
▁notice	-5558
▁видеть	-5559
▁bas	-5560
▁desire	-5561
▁Church	-5562
бно	-5563
▁oblig	-5564
ify	-5565
влек	-5566
▁mine	-5567
ification	-5568
чила	-5569
ouses	-5570
erve	-5571
зов	-5572
▁pra	-5573
ulation	-5574
▁виду	-5575
▁House	-5576
▁phr	-5577
▁например	-5578
▁несколь	-5579
▁цели	-5580
чис	-5581
▁Пока	-5582
▁пришел	-5583
oured	-5584
▁разме	-5585
eg	-5586
▁хочет	-5587
пить	-5588
▁есте	-5589
▁laugh	-5590
ox	-5591
▁сообщи	-5592
▁времен	-5593
мин	-5594
▁/	-5595
▁philosop	-5596
▁purs	-5597
▁29	-5598
▁occur	-5599
▁Section	-5600
▁immediately	-5601
гиб	-5602
шет	-5603
▁Sm	-5604
▁Thus	-5605
▁оба	-5606
:--	-5607
чий	-5608
▁цель	-5609
▁задум	-5610
▁Du	-5611
idered	-5612
ристи	-5613
▁клю	-5614
▁мужчина	-5615
тный	-5616
еме	-5617
jor	-5618
лер	-5619
▁голове	-5620
▁укра	-5621
▁hardly	-5622
▁вече	-5623
нан	-5624
▁написа	-5625
▁отношения	-5626
▁depart	-5627
▁течение	-5628
ato	-5629
▁трево	-5630
▁дли	-5631
▁Bl	-5632
труд	-5633
▁Vol	-5634
rief	-5635
▁метал	-5636
дая	-5637
тит	-5638
▁нер	-5639
ске	-5640
ющими	-5641
▁ess	-5642
▁машины	-5643
▁тран	-5644
нила	-5645
gla	-5646
ublic	-5647
пле	-5648
дти	-5649
ходили	-5650
▁Этот	-5651
▁exact	-5652
umb	-5653
▁Где	-5654
тар	-5655
▁смерть	-5656
▁срав	-5657
▁насто	-5658
дешь	-5659
▁ночи	-5660
▁стояла	-5661
▁иначе	-5662
▁posted	-5663
жая	-5664
▁Ей	-5665
▁ih	-5666
▁другого	-5667
▁simple	-5668
mber	-5669
▁револю	-5670
▁Фи	-5671
▁las	-5672
▁Ap	-5673
aan	-5674
▁battle	-5675
▁ves	-5676
ктора	-5677
utions	-5678
▁enter	-5679
▁crowd	-5680
нике	-5681
▁никак	-5682
новременно	-5683
icate	-5684
▁See	-5685
▁window	-5686
жался	-5687
надцать	-5688
▁Aug	-5689
▁оказы	-5690
▁двор	-5691
▁frequ	-5692
кали	-5693
▁guard	-5694
ческую	-5695
▁Май	-5696
▁dress	-5697
дленно	-5698
били	-5699
твер	-5700
▁служ	-5701
▁Er	-5702
▁considerable	-5703
▁стены	-5704
▁Pl	-5705
▁власти	-5706
дала	-5707
жин	-5708
▁mad	-5709
▁холод	-5710
▁Вла	-5711
hab	-5712
▁Russ	-5713
▁remained	-5714
▁fresh	-5715
▁тю	-5716
▁слы	-5717
▁fle	-5718
фер	-5719
▁предста	-5720
лил	-5721
▁spo	-5722
ijk	-5723
скими	-5724
▁Nor	-5725
▁slight	-5726
▁Зем	-5727
▁впечат	-5728
▁раскры	-5729
▁comb	-5730
osp	-5731
бов	-5732
мор	-5733
▁уничто	-5734
oses	-5735
▁дене	-5736
▁ancient	-5737
лую	-5738
▁осуще	-5739
▁cit	-5740
сел	-5741
▁Yet	-5742
▁нали	-5743
▁столько	-5744
▁depend	-5745
oup	-5746
▁придется	-5747
▁армии	-5748
▁ненави	-5749
rible	-5750
cip	-5751
▁warm	-5752
eter	-5753
uf	-5754
▁save	-5755
▁introdu	-5756
стри	-5757
▁нашего	-5758
▁обстоя	-5759
▁мое	-5760
кар	-5761
▁приро	-5762
▁почувствовал	-5763
▁возле	-5764
▁прово	-5765
▁coun	-5766
line	-5767
uses	-5768
▁Ant	-5769
laimed	-5770
▁могло	-5771
▁мире	-5772
▁furn	-5773
▁пов	-5774
▁осве	-5775
▁mass	-5776
▁встал	-5777
▁кое	-5778
▁allow	-5779
▁четвер	-5780
str	-5781
сер	-5782
▁помни	-5783
▁пого	-5784
▁War	-5785
▁easily	-5786
▁стан	-5787
▁avait	-5788
▁земли	-5789
жден	-5790
▁обеспе	-5791
▁стреми	-5792
▁внутри	-5793
▁объек	-5794
нного	-5795
▁дога	-5796
pping	-5797
▁mouth	-5798
ина	-5799
▁пье	-5800
▁слег	-5801
▁test	-5802
▁слов	-5803
дови	-5804
If	-5805
nded	-5806
uous	-5807
ходить	-5808
бил	-5809
▁головы	-5810
▁Их	-5811
ales	-5812
▁грудь	-5813
▁silence	-5814
оз	-5815
bur	-5816
пар	-5817
▁души	-5818
rill	-5819
▁earn	-5820
▁destroy	-5821
▁позволя	-5822
▁Один	-5823
▁Charles	-5824
imate	-5825
▁mach	-5826
▁pros	-5827
▁желез	-5828
тельная	-5829
▁hy	-5830
▁virt	-5831
мое	-5832
кнов	-5833
▁YOU	-5834
▁хле	-5835
▁вза	-5836
▁dan	-5837
anted	-5838
тел	-5839
▁спиной	-5840
▁остановился	-5841
поло	-5842
▁Gr	-5843
▁элем	-5844
▁руке	-5845
▁слегка	-5846
▁Phil	-5847
дж	-5848
мок	-5849
text	-5850
шина	-5851
мей	-5852
▁bird	-5853
▁appearance	-5854
▁1,	-5855
▁Can	-5856
▁burn	-5857
▁бри	-5858
дался	-5859
ability	-5860
IR	-5861
нку	-5862
▁хло	-5863
▁distributing	-5864
▁entirely	-5865
ститу	-5866
▁голова	-5867
"),	-5868
cer	-5869
▁кост	-5870
джа	-5871
▁участ	-5872
▁date	-5873
▁din	-5874
▁mater	-5875
▁Ай	-5876
▁extra	-5877
▁heavy	-5878
cil	-5879
▁ребен	-5880
▁sen	-5881
▁бур	-5882
▁двадцать	-5883
▁print	-5884
ющую	-5885
▁#	-5886
▁advant	-5887
▁силу	-5888
▁захва	-5889
▁переда	-5890
▁авиа	-5891
зм	-5892
▁oper	-5893
▁ven	-5894
▁Чер	-5895
▁iv	-5896
▁разговор	-5897
▁карти	-5898
▁нуж	-5899
▁rapid	-5900
▁принци	-5901
ёр	-5902
▁меха	-5903
дка	-5904
ara	-5905
gl	-5906
▁suc	-5907
▁noble	-5908
▁последний	-5909
▁meant	-5910
▁Ор	-5911
isc	-5912
_;	-5913
▁дыха	-5914
▁какую	-5915
itive	-5916
▁green	-5917
чкой	-5918
▁music	-5919
▁Надо	-5920
▁Vir	-5921
▁authority	-5922
▁дни	-5923
▁clot	-5924
▁невозможно	-5925
▁third	-5926
▁другим	-5927
▁broken	-5928
▁fem	-5929
▁Indian	-5930
▁кух	-5931
чился	-5932
▁north	-5933
дина	-5934
скать	-5935
▁thick	-5936
LA	-5937
▁impossible	-5938
▁счастли	-5939
▁exec	-5940
▁рук	-5941
▁trouble	-5942
▁воздух	-5943
▁society	-5944
▁повернулся	-5945
▁Гри	-5946
▁grave	-5947
Illustr	-5948
траль	-5949
20	-5950
▁сел	-5951
▁автома	-5952
▁принима	-5953
▁volunte	-5954
▁моз	-5955
▁ев	-5956
ords	-5957
▁circumstances	-5958
▁Com	-5959
1]	-5960
▁places	-5961
There	-5962
▁fr	-5963
ET	-5964
iant	-5965
бом	-5966
▁ign	-5967
▁мгновение	-5968
вол	-5969
жешь	-5970
▁тяжело	-5971
ming	-5972
▁Te	-5973
▁жал	-5974
▁succeed	-5975
▁ban	-5976
▁Впрочем	-5977
влении	-5978
III	-5979
oted	-5980
▁подро	-5981
eks	-5982
▁поез	-5983
▁завер	-5984
▁food	-5985
ingu	-5986
▁comme	-5987
жает	-5988
ческим	-5989
▁thirty	-5990
▁Чу	-5991
▁instead	-5992
▁shad	-5993
▁пусть	-5994
ID	-5995
ora	-5996
▁огонь	-5997
▁arg	-5998
▁настро	-5999
Illustration	-6000
onel	-6001
рила	-6002
тай	-6003
▁artic	-6004
▁Que	-6005
▁intellect	-6006
arrow	-6007
▁loved	-6008
▁назна	-6009
▁address	-6010
ilar	-6011
▁показы	-6012
glaf	-6013
▁standing	-6014
▁America	-6015
▁буты	-6016
▁думать	-6017
▁либо	-6018
▁pure	-6019
▁formed	-6020
▁married	-6021
▁Мор	-6022
▁чувства	-6023
▁boat	-6024
▁press	-6025
igen	-6026
▁комнаты	-6027
сах	-6028
▁south	-6029
iden	-6030
говорил	-6031
▁Тот	-6032
стье	-6033
raid	-6034
нит	-6035
▁Вели	-6036
▁using	-6037
рат	-6038
ios	-6039
▁learned	-6040
▁bien	-6041
чень	-6042
▁nation	-6043
icked	-6044
▁опер	-6045
▁Хоро	-6046
▁happened	-6047
▁Ag	-6048
▁противника	-6049
lt	-6050
▁американ	-6051
▁TO	-6052
тура	-6053
▁harm	-6054
33	-6055
▁fun	-6056
▁stream	-6057
▁fit	-6058
▁ночью	-6059
▁books	-6060
нным	-6061
▁ren	-6062
▁рассказ	-6063
▁Гор	-6064
▁угро	-6065
orses	-6066
otion	-6067
▁никаких	-6068
гей	-6069
▁village	-6070
▁необы	-6071
▁James	-6072
▁небе	-6073
▁бор	-6074
вшее	-6075
кс	-6076
▁столи	-6077
uge	-6078
▁мел	-6079
тивно	-6080
light	-6081
▁distribution	-6082
▁blue	-6083
▁поняла	-6084
▁произошло	-6085
▁тео	-6086
▁vessel	-6087
кру	-6088
▁Thom	-6089
▁una	-6090
ана	-6091
бора	-6092
чением	-6093
▁Const	-6094
▁filled	-6095
▁uns	-6096
ching	-6097
кт	-6098
dd	-6099
▁lips	-6100
▁mess	-6101
▁мини	-6102
▁social	-6103
▁простран	-6104
бере	-6105
▁мисси	-6106
тилась	-6107
Why	-6108
▁стояли	-6109
▁develop	-6110
▁utter	-6111
▁thinking	-6112
▁gun	-6113
▁поспе	-6114
▁bott	-6115
▁safe	-6116
▁185	-6117
▁согласи	-6118
▁provided	-6119
25	-6120
▁try	-6121
▁Lady	-6122
ograph	-6123
▁considered	-6124
тились	-6125
стями	-6126
зить	-6127
oly	-6128
▁princip	-6129
▁сосед	-6130
▁whis	-6131
▁modern	-6132
▁Госпо	-6133
▁forest	-6134
▁самых	-6135
▁god	-6136
лях	-6137
▁moral	-6138
▁секун	-6139
▁трудом	-6140
▁солнце	-6141
▁giving	-6142
▁gall	-6143
ander	-6144
ляр	-6145
▁tree	-6146
▁Дру	-6147
▁настолько	-6148
зер	-6149
▁hung	-6150
▁жена	-6151
▁Пред	-6152
нили	-6153
▁предпри	-6154
▁race	-6155
▁впервые	-6156
▁тобой	-6157
▁мер	-6158
▁оказалось	-6159
ishing	-6160
▁smile	-6161
▁Rev	-6162
aten	-6163
▁кому	-6164
ходят	-6165
▁любовь	-6166
arily	-6167
никами	-6168
▁mij	-6169
▁показалось	-6170
▁человеком	-6171
▁boys	-6172
▁whatever	-6173
▁ново	-6174
нести	-6175
▁добра	-6176
ral	-6177
▁afterwards	-6178
▁effort	-6179
▁While	-6180
▁поднялся	-6181
читы	-6182
▁речь	-6183
▁отсут	-6184
вела	-6185
ету	-6186
▁sister	-6187
▁францу	-6188
▁Sen	-6189
respond	-6190
▁direction	-6191
▁хотела	-6192
off	-6193
▁experience	-6194
▁publ	-6195
▁корпу	-6196
▁bless	-6197
▁favor	-6198
▁PRO	-6199
nal	-6200
ado	-6201
▁ende	-6202
▁идти	-6203
▁драма	-6204
▁original	-6205
▁hom	-6206
▁presence	-6207
▁суме	-6208
дим	-6209
вился	-6210
▁гражда	-6211
жется	-6212
▁случилось	-6213
▁rese	-6214
дий	-6215
пов	-6216
дале	-6217
culiar	-6218
▁тепло	-6219
ization	-6220
▁испыты	-6221
жь	-6222
▁неда	-6223
▁удар	-6224
▁defect	-6225
▁роль	-6226
менты	-6227
▁многие	-6228
▁брат	-6229
▁thoughts	-6230
▁миро	-6231
▁wid	-6232
альная	-6233
мон	-6234
▁inj	-6235
▁мощ	-6236
▁дал	-6237
меется	-6238
zz	-6239
▁молоды	-6240
кров	-6241
▁raised	-6242
ris	-6243
▁spring	-6244
эй	-6245
атр	-6246
▁окна	-6247
лить	-6248
▁middle	-6249
ustri	-6250
▁пози	-6251
▁пяти	-6252
щик	-6253
ффе	-6254
▁passion	-6255
ees	-6256
▁каса	-6257
▁дороге	-6258
▁круг	-6259
▁wrote	-6260
▁полностью	-6261
▁другое	-6262
дку	-6263
▁пару	-6264
бить	-6265
▁положи	-6266
▁assist	-6267
▁expression	-6268
▁Эли	-6269
▁rend	-6270
▁влия	-6271
istrib	-6272
▁sich	-6273
▁древ	-6274
▁Well	-6275
▁спросила	-6276
цом	-6277
нению	-6278
▁mission	-6279
▁greatest	-6280
нное	-6281
▁указа	-6282
▁озна	-6283
▁вспы	-6284
▁плечами	-6285
oom	-6286
▁всему	-6287
▁всё	-6288
▁cry	-6289
эм	-6290
ссу	-6291
довлет	-6292
▁прикры	-6293
▁freed	-6294
▁getting	-6295
ashion	-6296
жнему	-6297
▁писто	-6298
ta	-6299
▁peculiar	-6300
▁efforts	-6301
29	-6302
▁based	-6303
▁190	-6304
▁becom	-6305
▁rock	-6306
▁изоб	-6307
раздо	-6308
▁cases	-6309
кономи	-6310
▁бар	-6311
▁ступ	-6312
▁Неу	-6313
▁Совет	-6314
навли	-6315
▁цвета	-6316
imin	-6317
rel	-6318
▁видимо	-6319
▁требу	-6320
▁stopped	-6321
ARD	-6322
▁предло	-6323
▁зачем	-6324
▁Значит	-6325
▁вместо	-6326
кос	-6327
▁чита	-6328
pir	-6329
iced	-6330
более	-6331
▁numbers	-6332
ствием	-6333
видно	-6334
aled	-6335
▁съ	-6336
▁распро	-6337
сюда	-6338
ологи	-6339
▁British	-6340
▁3,	-6341
▁стари	-6342
▁knows	-6343
мб	-6344
▁accomp	-6345
▁mir	-6346
olved	-6347
▁стола	-6348
жество	-6349
следова	-6350
▁note	-6351
▁боро	-6352
▁afraid	-6353
долго	-6354
▁открыл	-6355
▁AA	-6356
▁cred	-6357
день	-6358
▁official	-6359
▁бело	-6360
▁trave	-6361
чался	-6362
ression	-6363
▁usual	-6364
▁пожалуй	-6365
▁измен	-6366
▁mut	-6367
▁tu	-6368
▁ль	-6369
▁write	-6370
▁anyone	-6371
▁солдат	-6372
▁чувствовал	-6373
▁образ	-6374
oura	-6375
▁appre	-6376
▁drew	-6377
▁foreign	-6378
▁x	-6379
▁зве	-6380
▁руба	-6381
▁excell	-6382
▁born	-6383
▁process	-6384
▁Cor	-6385
мую	-6386
▁насе	-6387
▁phrase	-6388
▁personal	-6389
▁caught	-6390
▁собственно	-6391
noon	-6392
▁имел	-6393
▁всеми	-6394
▁mat	-6395
▁дать	-6396
▁cab	-6397
мыс	-6398
▁fru	-6399
▁права	-6400
isions	-6401
алов	-6402
aries	-6403
зии	-6404
▁symp	-6405
▁машину	-6406
ests	-6407
▁увидела	-6408
▁несмотря	-6409
▁sav	-6410
пом	-6411
▁covered	-6412
пру	-6413
▁Джон	-6414
дон	-6415
▁жерт	-6416
ева	-6417
▁straight	-6418
▁пала	-6419
ere	-6420
▁search	-6421
▁постро	-6422
erson	-6423
▁ребя	-6424
▁Сле	-6425
▁плечо	-6426
▁оборо	-6427
▁вскоре	-6428
▁интерес	-6429
▁красо	-6430
▁воду	-6431
чили	-6432
▁produced	-6433
▁example	-6434
▁помощью	-6435
oned	-6436
чными	-6437
▁horses	-6438
▁качестве	-6439
cription	-6440
▁Paul	-6441
▁fla	-6442
▁первой	-6443
▁$	-6444
▁подтвер	-6445
uls	-6446
▁одновременно	-6447
▁еди	-6448
против	-6449
▁doll	-6450
▁regular	-6451
dy	-6452
▁yourself	-6453
▁Миха	-6454
OO	-6455
▁дорогу	-6456
▁admir	-6457
eds	-6458
▁пам	-6459
рию	-6460
iles	-6461
▁fol	-6462
▁walked	-6463
стый	-6464
▁плечи	-6465
▁iii	-6466
кои	-6467
▁Слу	-6468
▁возможности	-6469
сю	-6470
▁Прав	-6471
▁Where	-6472
▁отчая	-6473
▁fal	-6474
gment	-6475
▁сначала	-6476
▁strugg	-6477
цени	-6478
▁крови	-6479
ica	-6480
▁поста	-6481
oyal	-6482
тик	-6483
▁MAR	-6484
▁figure	-6485
▁предмет	-6486
▁fran	-6487
▁amb	-6488
▁Сол	-6489
lin	-6490
▁внимательно	-6491
road	-6492
стности	-6493
▁ur	-6494
▁вошел	-6495
▁snow	-6496
▁drink	-6497
▁possession	-6498
Pro	-6499
▁движения	-6500
▁century	-6501
▁важно	-6502
▁Фа	-6503
▁summer	-6504
▁design	-6505
цам	-6506
▁contro	-6507
▁Пол	-6508
▁Одна	-6509
▁host	-6510
▁sharp	-6511
▁ужас	-6512
▁distingu	-6513
читать	-6514
▁най	-6515
нович	-6516
пах	-6517
▁двига	-6518
▁due	-6519
▁applic	-6520
ba	-6521
вки	-6522
▁Эта	-6523
▁сих	-6524
дук	-6525
▁cult	-6526
▁замеча	-6527
▁Коро	-6528
▁religion	-6529
мили	-6530
мир	-6531
▁ball	-6532
▁нечто	-6533
▁spread	-6534
▁har	-6535
▁жало	-6536
▁солн	-6537
90	-6538
▁required	-6539
hest	-6540
▁appears	-6541
▁молодой	-6542
▁очере	-6543
▁fing	-6544
▁Ше	-6545
ехали	-6546
▁милли	-6547
▁song	-6548
▁пору	-6549
▁ang	-6550
▁exerc	-6551
кнула	-6552
▁Every	-6553
▁поднима	-6554
▁allowed	-6555
▁шаг	-6556
omin	-6557
▁вещи	-6558
▁психо	-6559
▁mais	-6560
▁вслед	-6561
▁женщин	-6562
▁получил	-6563
рито	-6564
▁обратно	-6565
▁участи	-6566
appe	-6567
▁пры	-6568
лаг	-6569
▁uit	-6570
правля	-6571
▁выстре	-6572
▁started	-6573
▁arrived	-6574
▁определ	-6575
▁reve	-6576
▁forgot	-6577
женный	-6578
mit	-6579
▁торо	-6580
▁ber	-6581
ology	-6582
чики	-6583
▁показа	-6584
▁discovered	-6585
▁похоже	-6586
дание	-6587
ол	-6588
▁сос	-6589
▁sick	-6590
vention	-6591
▁FOR	-6592
▁Сан	-6593
stood	-6594
▁scene	-6595
гам	-6596
▁станет	-6597
▁struck	-6598
▁lines	-6599
▁rid	-6600
▁expected	-6601
▁гораздо	-6602
▁forget	-6603
▁mort	-6604
▁приоб	-6605
To	-6606
▁мето	-6607
▁reading	-6608
▁spr	-6609
чешь	-6610
bled	-6611
▁qual	-6612
▁vain	-6613
▁пусты	-6614
▁speech	-6615
довал	-6616
дри	-6617
▁яро	-6618
▁evil	-6619
ades	-6620
▁yes	-6621
ested	-6622
▁wer	-6623
▁внезапно	-6624
▁выда	-6625
▁утром	-6626
▁marked	-6627
▁многих	-6628
set	-6629
illa	-6630
дился	-6631
57	-6632
ibly	-6633
▁выяс	-6634
▁новые	-6635
▁соврем	-6636
ply	-6637
нке	-6638
ваемы	-6639
action	-6640
▁беско	-6641
cked	-6642
стати	-6643
▁взглянул	-6644
рес	-6645
▁auf	-6646
▁magn	-6647
▁составля	-6648
▁cette	-6649
дах	-6650
▁вста	-6651
▁друзья	-6652
ненно	-6653
▁последние	-6654
солю	-6655
▁subst	-6656
▁military	-6657
вла	-6658
▁Пар	-6659
рец	-6660
▁exclaimed	-6661
enth	-6662
▁Кла	-6663
▁instant	-6664
kn	-6665
ОВ	-6666
RI	-6667
вов	-6668
▁тысяч	-6669
My	-6670
▁opportunity	-6671
десят	-6672
kes	-6673
▁уче	-6674
▁tender	-6675
▁потя	-6676
даря	-6677
▁чере	-6678
▁owner	-6679
▁scarcely	-6680
▁возбу	-6681
▁freely	-6682
▁наверное	-6683
ode	-6684
▁безопа	-6685
ECT	-6686
▁Кроме	-6687
стая	-6688
хран	-6689
▁фанта	-6690
aped	-6691
кала	-6692
▁замер	-6693
▁grew	-6694
▁Ша	-6695
▁девя	-6696
прежнему	-6697
▁marriage	-6698
▁observed	-6699
▁medium	-6700
▁оказалась	-6701
▁верх	-6702
▁коль	-6703
▁XX	-6704
▁discuss	-6705
ano	-6706
▁moved	-6707
ibility	-6708
разу	-6709
▁нескольких	-6710
▁amount	-6711
▁сообра	-6712
▁никакого	-6713
▁Sec	-6714
чок	-6715
formation	-6716
istr	-6717
▁labor	-6718
--------	-6719
roes	-6720
диться	-6721
▁justice	-6722
▁please	-6723
▁кровь	-6724
емся	-6725
▁absolute	-6726
come	-6727
▁stone	-6728
▁health	-6729
пенно	-6730
▁fo	-6731
▁sor	-6732
жного	-6733
ented	-6734
inite	-6735
▁correspond	-6736
▁шесть	-6737
▁material	-6738
▁кем	-6739
▁girls	-6740
▁collection	-6741
ando	-6742
▁Mon	-6743
uel	-6744
▁rule	-6745
▁электро	-6746
пой	-6747
ii	-6748
▁picture	-6749
aren	-6750
▁кула	-6751
lend	-6752
▁winter	-6753
▁связан	-6754
▁отда	-6755
няка	-6756
▁думаю	-6757
▁охва	-6758
▁Mac	-6759
симо	-6760
тило	-6761
pglaf	-6762
▁Great	-6763
▁выпу	-6764
▁накло	-6765
лот	-6766
▁Кор	-6767
▁187	-6768
▁слышал	-6769
▁прекрас	-6770
▁memb	-6771
▁intellig	-6772
▁maintain	-6773
▁afternoon	-6774
▁Wil	-6775
▁поку	-6776
▁tait	-6777
▁spot	-6778
лети	-6779
▁опо	-6780
лять	-6781
▁сопрово	-6782
lied	-6783
ata	-6784
▁slowly	-6785
ny	-6786
лыми	-6787
▁adop	-6788
▁взять	-6789
редо	-6790
▁шум	-6791
▁Louis	-6792
▁grace	-6793
нос	-6794
▁"'	-6795
▁помощь	-6796
▁Their	-6797
how	-6798
зом	-6799
коле	-6800
▁inform	-6801
▁soldiers	-6802
▁подру	-6803
▁состоянии	-6804
▁Би	-6805
теше	-6806
интере	-6807
='	-6808
SON	-6809
▁непре	-6810
▁private	-6811
gra	-6812
шими	-6813
▁сот	-6814
▁III	-6815
ческом	-6816
▁asse	-6817
▁Сло	-6818
▁ist	-6819
рица	-6820
▁усме	-6821
▁письмо	-6822
ishment	-6823
▁отдель	-6824
▁journey	-6825
▁vast	-6826
▁Comm	-6827
▁тря	-6828
шает	-6829
▁Our	-6830
▁море	-6831
▁сколь	-6832
лина	-6833
27	-6834
▁вчера	-6835
▁войска	-6836
зин	-6837
tr	-6838
▁news	-6839
▁чисто	-6840
▁основа	-6841
▁первого	-6842
TON	-6843
▁Captain	-6844
мея	-6845
lease	-6846
▁Правда	-6847
▁нашел	-6848
How	-6849
▁приказ	-6850
ссы	-6851
довало	-6852
▁decl	-6853
щими	-6854
bo	-6855
▁conqu	-6856
▁людя	-6857
стера	-6858
▁Чи	-6859
▁которому	-6860
▁осталось	-6861
▁existence	-6862
▁custom	-6863
▁street	-6864
щаться	-6865
▁inhab	-6866
no	-6867
wed	-6868
▁file	-6869
▁Les	-6870
▁leaves	-6871
▁national	-6872
▁pot	-6873
▁вдоль	-6874
▁рав	-6875
▁увели	-6876
▁citiz	-6877
▁спусти	-6878
▁Mc	-6879
▁удовлет	-6880
▁чувству	-6881
rid	-6882
▁equal	-6883
▁знаешь	-6884
▁развер	-6885
▁filen	-6886
▁улице	-6887
▁bank	-6888
▁ep	-6889
▁уто	-6890
тана	-6891
▁начи	-6892
▁некоторые	-6893
unk	-6894
▁света	-6895
▁showed	-6896
▁планет	-6897
▁положение	-6898
чив	-6899
▁посмотрела	-6900
▁dread	-6901
▁постоянно	-6902
▁никого	-6903
▁опас	-6904
рус	-6905
думы	-6906
креп	-6907
ulty	-6908
ниц	-6909
▁passage	-6910
▁gives	-6911
▁piece	-6912
▁охо	-6913
▁чтоб	-6914
▁происходит	-6915
▁laug	-6916
hens	-6917
▁броси	-6918
▁ways	-6919
гает	-6920
▁elle	-6921
erous	-6922
▁самые	-6923
▁конец	-6924
ССР	-6925
▁подума	-6926
рко	-6927
▁гне	-6928
▁послу	-6929
ef	-6930
▁lives	-6931
atives	-6932
▁broad	-6933
▁value	-6934
▁погру	-6935
▁leaving	-6936
umed	-6937
алом	-6938
▁hall	-6939
тельную	-6940
сток	-6941
▁fro	-6942
▁програм	-6943
пку	-6944
▁laughed	-6945
ATION	-6946
▁decided	-6947
▁iron	-6948
▁имени	-6949
ero	-6950
▁somewhat	-6951
▁glass	-6952
work	-6953
11	-6954
▁Мал	-6955
▁предупре	-6956
▁188	-6957
▁сор	-6958
▁similar	-6959
▁элемен	-6960
▁special	-6961
кор	-6962
▁Cal	-6963
нта	-6964
чим	-6965
house	-6966
тите	-6967
▁gaz	-6968
▁треть	-6969
ias	-6970
▁теа	-6971
диви	-6972
▁крайней	-6973
▁ident	-6974
▁ува	-6975
▁опи	-6976
▁distinct	-6977
isl	-6978
▁breath	-6979
▁цело	-6980
чено	-6981
▁намер	-6982
▁supposed	-6983
мар	-6984
▁напол	-6985
▁досто	-6986
дные	-6987
бки	-6988
▁зал	-6989
▁imper	-6990
▁берегу	-6991
▁облег	-6992
ворю	-6993
ственная	-6994
рования	-6995
▁vall	-6996
▁Бар	-6997
▁преда	-6998
спу	-6999
▁religious	-7000
▁повы	-7001
▁apparent	-7002
▁Virgin	-7003
▁приходилось	-7004
▁miss	-7005
пет	-7006
▁выр	-7007
▁углу	-7008
▁habit	-7009
▁пытался	-7010
▁officers	-7011
мого	-7012
istic	-7013
зиден	-7014
▁quel	-7015
дишь	-7016
▁плен	-7017
женно	-7018
вут	-7019
▁англий	-7020
OW	-7021
min	-7022
тные	-7023
arer	-7024
bour	-7025
itor	-7026
▁Even	-7027
▁остался	-7028
je	-7029
▁chair	-7030
▁pi	-7031
▁trade	-7032
▁разно	-7033
▁преж	-7034
▁vent	-7035
▁ограни	-7036
▁голосом	-7037
сей	-7038
97	-7039
▁таком	-7040
aux	-7041
▁выну	-7042
▁прош	-7043
▁каких	-7044
рел	-7045
ложить	-7046
▁train	-7047
▁недоста	-7048
▁очередь	-7049
AB	-7050
▁такую	-7051
▁появля	-7052
▁keeping	-7053
▁forms	-7054
▁Tur	-7055
ченный	-7056
▁увидеть	-7057
▁видела	-7058
▁lot	-7059
▁немедленно	-7060
енным	-7061
▁study	-7062
vation	-7063
▁меди	-7064
▁JO	-7065
▁removed	-7066
my	-7067
▁узнал	-7068
olly	-7069
▁deli	-7070
тных	-7071
▁seven	-7072
US	-7073
ELL	-7074
▁board	-7075
▁Ничего	-7076
ourt	-7077
▁wond	-7078
ternal	-7079
ros	-7080
▁дети	-7081
▁стене	-7082
hered	-7083
▁extend	-7084
ada	-7085
▁fail	-7086
▁pron	-7087
was	-7088
▁Gu	-7089
гну	-7090
▁incl	-7091
▁Robert	-7092
88	-7093
▁аэ	-7094
▁разру	-7095
▁Бра	-7096
▁seeing	-7097
▁progress	-7098
▁Van	-7099
стр	-7100
▁built	-7101
▁descend	-7102
▁профессо	-7103
▁какого	-7104
лон	-7105
▁неизве	-7106
▁Jul	-7107
▁глубоко	-7108
▁President	-7109
▁iss	-7110
ристо	-7111
▁flowers	-7112
▁большин	-7113
▁determined	-7114
▁осуществ	-7115
▁principles	-7116
▁narrow	-7117
пел	-7118
▁зали	-7119
▁услышал	-7120
▁liter	-7121
▁fifty	-7122
▁surr	-7123
96	-7124
elve	-7125
▁зато	-7126
▁заку	-7127
▁temper	-7128
▁иметь	-7129
▁houses	-7130
AY	-7131
lement	-7132
▁Lu	-7133
▁cloud	-7134
ka	-7135
читься	-7136
▁plant	-7137
▁кня	-7138
жений	-7139
▁Die	-7140
▁лежа	-7141
▁tears	-7142
lly	-7143
▁суб	-7144
▁реак	-7145
вшегося	-7146
▁повери	-7147
▁дороги	-7148
щать	-7149
▁31	-7150
▁hem	-7151
▁link	-7152
рился	-7153
▁моих	-7154
▁dinner	-7155
▁protect	-7156
▁bran	-7157
▁pull	-7158
щность	-7159
▁tone	-7160
▁named	-7161
vey	-7162
▁nu	-7163
▁страны	-7164
▁Who	-7165
▁развед	-7166
ковой	-7167
ned	-7168
▁mel	-7169
sch	-7170
евич	-7171
▁walls	-7172
▁ору	-7173
▁вами	-7174
▁шли	-7175
esty	-7176
▁мою	-7177
▁мона	-7178
ьев	-7179
▁Gram	-7180
емой	-7181
▁восем	-7182
▁sour	-7183
▁minute	-7184
▁troops	-7185
▁зара	-7186
▁зерк	-7187
▁takes	-7188
▁действия	-7189
нач	-7190
▁сын	-7191
▁Стали	-7192
▁слабо	-7193
вку	-7194
ointed	-7195
▁готов	-7196
▁анти	-7197
▁conversation	-7198
влека	-7199
EM	-7200
▁привет	-7201
▁костю	-7202
▁смотрела	-7203
▁Гар	-7204
▁oppos	-7205
▁pit	-7206
▁опыт	-7207
ding	-7208
▁prepared	-7209
▁ию	-7210
▁партии	-7211
▁воспомина	-7212
▁контро	-7213
▁лес	-7214
▁пальцы	-7215
▁Андрей	-7216
▁помочь	-7217
▁насла	-7218
▁двумя	-7219
▁сотруд	-7220
face	-7221
▁любой	-7222
▁радио	-7223
▁дож	-7224
стить	-7225
▁непро	-7226
▁Gre	-7227
▁firm	-7228
чих	-7229
▁situation	-7230
▁beside	-7231
▁pleasant	-7232
▁Возможно	-7233
▁гряз	-7234
▁Чтобы	-7235
▁говорили	-7236
▁Ги	-7237
▁бесе	-7238
▁принес	-7239
cia	-7240
▁ris	-7241
▁вечером	-7242
стях	-7243
▁говорят	-7244
▁чему	-7245
field	-7246
вос	-7247
▁killed	-7248
▁understood	-7249
▁dig	-7250
ino	-7251
▁высоко	-7252
under	-7253
▁дя	-7254
▁resp	-7255
ompl	-7256
▁професси	-7257
▁Red	-7258
▁ourselves	-7259
ague	-7260
▁capt	-7261
▁новый	-7262
▁sty	-7263
▁Jan	-7264
▁speaking	-7265
▁сига	-7266
▁пережи	-7267
▁вести	-7268
▁окно	-7269
▁услы	-7270
гна	-7271
▁воздухе	-7272
▁смотреть	-7273
▁freedom	-7274
esar	-7275
телями	-7276
▁royal	-7277
▁alle	-7278
▁lord	-7279
▁области	-7280
▁улыбнулась	-7281
▁directly	-7282
▁находится	-7283
nen	-7284
нями	-7285
▁doct	-7286
коль	-7287
▁абсолю	-7288
ЕН	-7289
▁прода	-7290
▁wise	-7291
▁waiting	-7292
▁бол	-7293
▁August	-7294
▁вышла	-7295
▁silent	-7296
▁Des	-7297
▁sitting	-7298
▁колени	-7299
cle	-7300
▁quickly	-7301
▁degree	-7302
ails	-7303
].	-7304
▁escape	-7305
▁автомо	-7306
▁Tom	-7307
▁garden	-7308
▁жесто	-7309
▁силой	-7310
37	-7311
говорить	-7312
▁тради	-7313
▁сек	-7314
▁часы	-7315
глу	-7316
00,	-7317
▁Кен	-7318
чется	-7319
▁storm	-7320
arl	-7321
▁обви	-7322
▁начали	-7323
▁wealth	-7324
▁replace	-7325
люби	-7326
▁throw	-7327
▁Влади	-7328
▁reach	-7329
▁honor	-7330
ходило	-7331
▁экономи	-7332
▁молодо	-7333
vo	-7334
жка	-7335
▁зале	-7336
iments	-7337
estern	-7338
▁застави	-7339
▁мага	-7340
пустил	-7341
▁крепко	-7342
ило	-7343
вшими	-7344
lected	-7345
▁drawn	-7346
outhern	-7347
▁concerning	-7348
GR	-7349
▁телефон	-7350
люб	-7351
▁земля	-7352
▁бросил	-7353
▁понимал	-7354
▁sympath	-7355
▁май	-7356
antic	-7357
essor	-7358
▁grad	-7359
▁declared	-7360
look	-7361
▁отчет	-7362
umph	-7363
IST	-7364
ellow	-7365
▁дорого	-7366
▁денег	-7367
▁extent	-7368
uer	-7369
дных	-7370
▁Queen	-7371
ITY	-7372
▁Ген	-7373
▁difficulty	-7374
▁свидетель	-7375
юр	-7376
▁prec	-7377
▁лежал	-7378
▁volunteers	-7379
▁]	-7380
чика	-7381
icated	-7382
35	-7383
ho	-7384
▁unf	-7385
▁пунк	-7386
дьми	-7387
▁CON	-7388
▁узнать	-7389
▁язык	-7390
▁полков	-7391
льной	-7392
ай	-7393
▁расстоя	-7394
▁дире	-7395
▁норм	-7396
▁favour	-7397
Ко	-7398
▁sky	-7399
▁помощи	-7400
reet	-7401
▁powers	-7402
обо	-7403
▁lif	-7404
▁публи	-7405
▁посо	-7406
▁simply	-7407
▁Dav	-7408
▁cat	-7409
пыта	-7410
▁эффе	-7411
▁ждать	-7412
влением	-7413
▁печ	-7414
▁capital	-7415
▁клу	-7416
hem	-7417
▁higher	-7418
▁террито	-7419
icy	-7420
▁goes	-7421
▁loss	-7422
▁Rich	-7423
▁окружа	-7424
▁разговари	-7425
▁каждого	-7426
▁Lat	-7427
нности	-7428
28	-7429
▁Пусть	-7430
ico	-7431
▁wished	-7432
▁празд	-7433
▁сможет	-7434
▁нав	-7435
ченные	-7436
тилле	-7437
▁Три	-7438
▁путеше	-7439
▁охра	-7440
67	-7441
owing	-7442
▁проник	-7443
▁taste	-7444
▁номер	-7445
дор	-7446
▁proc	-7447
стую	-7448
▁воспи	-7449
▁спря	-7450
▁Span	-7451
▁воспри	-7452
▁другую	-7453
▁passing	-7454
пей	-7455
▁bread	-7456
▁Ленин	-7457
▁extreme	-7458
▁ble	-7459
▁инстру	-7460
▁coast	-7461
▁рассматри	-7462
▁floor	-7463
▁рели	-7464
▁physical	-7465
ведение	-7466
▁“	-7467
▁immediate	-7468
▁ров	-7469
▁captain	-7470
lich	-7471
aval	-7472
▁XV	-7473
▁fond	-7474
nce	-7475
▁след	-7476
▁broke	-7477
▁смог	-7478
▁широко	-7479
▁Af	-7480
▁вопросы	-7481
▁ветер	-7482
oop	-7483
▁Frank	-7484
дного	-7485
▁prim	-7486
▁shot	-7487
▁Thomas	-7488
▁роман	-7489
▁Ber	-7490
▁заним	-7491
▁principle	-7492
▁star	-7493
редото	-7494
▁commer	-7495
▁здоров	-7496
44	-7497
▁боли	-7498
sec	-7499
▁знали	-7500
ехать	-7501
муще	-7502
тона	-7503
▁fashion	-7504
▁Law	-7505
▁раздра	-7506
▁сказа	-7507
вшейся	-7508
▁духов	-7509
▁fly	-7510
вной	-7511
▁миссис	-7512
ication	-7513
▁height	-7514
▁спек	-7515
▁explan	-7516
▁словами	-7517
вича	-7518
▁лей	-7519
▁отказ	-7520
attered	-7521
ases	-7522
▁eager	-7523
ners	-7524
▁parent	-7525
▁members	-7526
▁Italy	-7527
▁появился	-7528
▁Es	-7529
▁кровати	-7530
▁particularly	-7531
lict	-7532
енти	-7533
irm	-7534
▁liberty	-7535
pet	-7536
женные	-7537
▁наиболее	-7538
▁акт	-7539
вайте	-7540
▁утро	-7541
erved	-7542
жий	-7543
▁motion	-7544
няла	-7545
▁sentence	-7546
ходила	-7547
▁дальней	-7548
▁уверен	-7549
▁distribute	-7550
▁servants	-7551
▁Count	-7552
▁ата	-7553
▁Было	-7554
▁жест	-7555
▁lower	-7556
wing	-7557
▁хво	-7558
▁Indians	-7559
▁aux	-7560
▁Ben	-7561
▁впереди	-7562
▁решила	-7563
rig	-7564
▁времена	-7565
▁active	-7566
▁ignor	-7567
тесь	-7568
▁instance	-7569
▁meaning	-7570
ception	-7571
аз	-7572
▁sac	-7573
▁смот	-7574
▁оказались	-7575
▁неде	-7576
нди	-7577
▁earnest	-7578
пен	-7579
верь	-7580
▁kill	-7581
▁names	-7582
▁ответила	-7583
▁advantage	-7584
▁bitter	-7585
atur	-7586
▁устави	-7587
▁Mag	-7588
cket	-7589
▁сторон	-7590
▁stock	-7591
▁невы	-7592
▁погиб	-7593
▁мель	-7594
▁Челове	-7595
▁offered	-7596
▁accepted	-7597
▁моря	-7598
стоит	-7599
▁француз	-7600
▁опреде	-7601
▁будем	-7602
щается	-7603
▁Such	-7604
oul	-7605
▁Jud	-7606
ids	-7607
▁Хорошо	-7608
▁прият	-7609
39	-7610
мини	-7611
This	-7612
▁interesting	-7613
▁ordinary	-7614
▁Su	-7615
▁брю	-7616
▁conscious	-7617
▁Евро	-7618
uments	-7619
▁importance	-7620
bar	-7621
▁terrible	-7622
туре	-7623
▁accompl	-7624
бин	-7625
form	-7626
веря	-7627
do	-7628
▁nicht	-7629
▁говорю	-7630
▁mentioned	-7631
▁ока	-7632
льный	-7633
▁заво	-7634
▁Its	-7635
▁Аль	-7636
▁сты	-7637
цер	-7638
сона	-7639
▁капитан	-7640
▁мужа	-7641
▁подготов	-7642
▁сиг	-7643
iny	-7644
ША	-7645
рели	-7646
они	-7647
▁пропа	-7648
▁семей	-7649
▁believed	-7650
▁пона	-7651
▁бывает	-7652
▁желание	-7653
▁платье	-7654
дится	-7655
▁импера	-7656
▁оставалось	-7657
▁quant	-7658
▁popular	-7659
туда	-7660
▁паро	-7661
▁Min	-7662
ael	-7663
▁дого	-7664
▁вообра	-7665
ESS	-7666
▁громко	-7667
▁мило	-7668
▁arrange	-7669
▁пови	-7670
▁interp	-7671
▁likely	-7672
▁протянул	-7673
▁<	-7674
сад	-7675
▁Уже	-7676
стым	-7677
▁endeav	-7678
▁связа	-7679
ствуют	-7680
▁востор	-7681
▁сына	-7682
▁книги	-7683
▁уро	-7684
▁memory	-7685
▁calm	-7686
жалась	-7687
▁производ	-7688
▁reply	-7689
hington	-7690
▁Bel	-7691
▁servant	-7692
стный	-7693
▁распоря	-7694
▁Sam	-7695
дения	-7696
▁Дэ	-7697
ждая	-7698
irst	-7699
нная	-7700
▁touch	-7701
▁дыхание	-7702
ющихся	-7703
бь	-7704
тает	-7705
▁решение	-7706
▁band	-7707
ev	-7708
▁unto	-7709
▁двое	-7710
▁ногами	-7711
▁века	-7712
душ	-7713
чном	-7714
ading	-7715
▁встреча	-7716
which	-7717
sy	-7718
▁очеред	-7719
ergy	-7720
▁Сере	-7721
низу	-7722
▁Сте	-7723
ators	-7724
▁степени	-7725
▁Дол	-7726
▁west	-7727
▁рода	-7728
▁оказа	-7729
▁running	-7730
▁оружие	-7731
orough	-7732
▁национ	-7733
▁потря	-7734
▁пост	-7735
▁etc	-7736
▁ones	-7737
▁баш	-7738
osing	-7739
▁trying	-7740
скор	-7741
▁доби	-7742
▁courage	-7743
мас	-7744
▁tit	-7745
ур	-7746
ortion	-7747
▁временем	-7748
▁ment	-7749
▁rise	-7750
she	-7751
▁гар	-7752
asing	-7753
Project	-7754
▁native	-7755
▁положил	-7756
▁веду	-7757
▁reb	-7758
▁бесс	-7759
▁следующий	-7760
мяти	-7761
▁СССР	-7762
▁зрения	-7763
38	-7764
▁разум	-7765
ванием	-7766
▁witness	-7767
▁Smith	-7768
▁ближе	-7769
▁колен	-7770
▁размыш	-7771
▁подчи	-7772
▁principal	-7773
▁working	-7774
▁офици	-7775
страи	-7776
▁shore	-7777
▁serious	-7778
▁деятельности	-7779
▁сожал	-7780
▁вспомнил	-7781
▁становится	-7782
law	-7783
IES	-7784
▁40	-7785
жная	-7786
▁Стра	-7787
держать	-7788
▁лиш	-7789
ools	-7790
▁season	-7791
▁stop	-7792
▁обсу	-7793
▁сове	-7794
umn	-7795
▁режи	-7796
65	-7797
▁susp	-7798
▁жени	-7799
▁cu	-7800
▁движение	-7801
дру	-7802
▁отды	-7803
▁beneath	-7804
▁миг	-7805
▁shout	-7806
▁secure	-7807
▁Жи	-7808
▁sand	-7809
▁кило	-7810
▁splend	-7811
▁building	-7812
▁рассу	-7813
ede	-7814
▁трубку	-7815
▁постели	-7816
irth	-7817
▁proof	-7818
▁Навер	-7819
▁прошел	-7820
▁разгово	-7821
▁любопыт	-7822
▁Меня	-7823
▁perfectly	-7824
▁прили	-7825
▁RO	-7826
гар	-7827
▁false	-7828
▁экспе	-7829
▁happiness	-7830
▁пытаясь	-7831
▁Sy	-7832
▁стена	-7833
▁поб	-7834
▁мастер	-7835
▁самолет	-7836
▁ing	-7837
▁содержи	-7838
▁ideas	-7839
зился	-7840
▁judge	-7841
▁steam	-7842
▁doctor	-7843
▁покло	-7844
▁described	-7845
▁удоб	-7846
▁90	-7847
▁Father	-7848
сам	-7849
ounced	-7850
▁автомоби	-7851
торы	-7852
ый	-7853
eur	-7854
▁сомне	-7855
чало	-7856
▁некоторое	-7857
anging	-7858
▁WAR	-7859
▁вои	-7860
▁Caesar	-7861
альную	-7862
▁подумала	-7863
▁спину	-7864
▁неви	-7865
▁Пари	-7866
ствовали	-7867
▁cover	-7868
▁zich	-7869
Not	-7870
▁diss	-7871
▁Герма	-7872
▁share	-7873
oles	-7874
▁Germany	-7875
▁officer	-7876
▁пользо	-7877
▁театр	-7878
▁box	-7879
▁shut	-7880
▁calcul	-7881
▁комму	-7882
▁ушел	-7883
▁восхи	-7884
полу	-7885
▁shown	-7886
▁inhabit	-7887
ita	-7888
▁game	-7889
clock	-7890
known	-7891
▁мужчины	-7892
▁Coll	-7893
▁surprise	-7894
▁DE	-7895
рачи	-7896
▁ван	-7897
▁fixed	-7898
▁сре	-7899
жела	-7900
lished	-7901
▁тща	-7902
▁measure	-7903
UN	-7904
▁Сна	-7905
▁changed	-7906
▁dign	-7907
▁наше	-7908
▁Али	-7909
▁eat	-7910
▁intellectual	-7911
▁первым	-7912
▁pos	-7913
▁etext	-7914
▁нового	-7915
▁naar	-7916
▁univers	-7917
▁вздохнул	-7918
▁nations	-7919
тания	-7920
▁site	-7921
▁affairs	-7922
▁Dick	-7923
одо	-7924
няли	-7925
рыва	-7926
▁finally	-7927
▁heat	-7928
▁ближай	-7929
▁2,	-7930
▁зи	-7931
▁Перед	-7932
сали	-7933
▁спаль	-7934
▁honour	-7935
лями	-7936
СТ	-7937
▁избе	-7938
шься	-7939
▁Greek	-7940
▁воору	-7941
▁Иван	-7942
▁chap	-7943
▁улыба	-7944
▁meeting	-7945
apt	-7946
▁filename	-7947
▁шла	-7948
▁минуты	-7949
▁portion	-7950
▁большим	-7951
пать	-7952
▁distributed	-7953
▁мл	-7954
▁здоро	-7955
▁соста	-7956
▁Ах	-7957
▁работ	-7958
чались	-7959
▁постепенно	-7960
▁threat	-7961
▁оставля	-7962
▁group	-7963
▁засты	-7964
▁общества	-7965
▁mountains	-7966
bered	-7967
inent	-7968
▁людьми	-7969
▁источ	-7970
▁поря	-7971
69	-7972
тяги	-7973
ker	-7974
вена	-7975
▁cheer	-7976
▁repeated	-7977
▁relations	-7978
нят	-7979
They	-7980
▁Ска	-7981
▁aus	-7982
▁page	-7983
CK	-7984
вому	-7985
▁значение	-7986
▁лестнице	-7987
▁пришла	-7988
▁генерал	-7989
▁ces	-7990
▁questions	-7991
rees	-7992
▁independ	-7993
крас	-7994
▁fier	-7995
ностью	-7996
ницей	-7997
▁engaged	-7998
▁сия	-7999
▁полез	-8000
▁Неужели	-8001
ival	-8002
▁proved	-8003
▁=	-8004
▁usually	-8005
ждал	-8006
▁Тре	-8007
▁numerous	-8008
▁нос	-8009
▁сон	-8010
▁Хар	-8011
▁matters	-8012
▁девушки	-8013
пози	-8014
▁arch	-8015
hr	-8016
elen	-8017
▁вал	-8018
▁общем	-8019
▁territ	-8020
ana	-8021
▁торже	-8022
▁Gl	-8023
▁растер	-8024
▁группы	-8025
▁env	-8026
▁аппа	-8027
▁station	-8028
▁spite	-8029
▁отря	-8030
▁evidence	-8031
worth	-8032
стречу	-8033
▁деревя	-8034
▁cand	-8035
▁excl	-8036
▁спосо	-8037
▁говорила	-8038
▁рассе	-8039
▁мело	-8040
рович	-8041
▁работать	-8042
ieur	-8043
▁bell	-8044
▁apart	-8045
▁человеку	-8046
щает	-8047
▁Just	-8048
▁прислу	-8049
пят	-8050
▁dry	-8051
▁proud	-8052
▁народа	-8053
__	-8054
На	-8055
▁работе	-8056
▁пья	-8057
▁которыми	-8058
чиков	-8059
▁знаете	-8060
▁наме	-8061
▁новой	-8062
▁ребенка	-8063
▁Вско	-8064
▁припо	-8065
▁городе	-8066
▁intended	-8067
▁прекрасно	-8068
▁события	-8069
▁AS	-8070
port	-8071
▁stro	-8072
together	-8073
рует	-8074
▁неподви	-8075
▁facts	-8076
ART	-8077
боль	-8078
▁Jew	-8079
▁fortune	-8080
▁Разве	-8081
брал	-8082
pel	-8083
▁шля	-8084
▁spent	-8085
▁closed	-8086
лено	-8087
чками	-8088
▁вытащи	-8089
▁находя	-8090
▁возь	-8091
▁период	-8092
▁Можно	-8093
▁grat	-8094
▁difference	-8095
нг	-8096
▁gar	-8097
ъя	-8098
▁чит	-8099
щении	-8100
▁Вз	-8101
чилась	-8102
▁самому	-8103
▁соедин	-8104
▁нож	-8105
▁принять	-8106
▁камен	-8107
▁corner	-8108
виться	-8109
▁Virginia	-8110
▁throughout	-8111
▁причем	-8112
▁юно	-8113
ura	-8114
▁улыбкой	-8115
▁Washington	-8116
▁alt	-8117
▁Лон	-8118
▁практи	-8119
riet	-8120
лел	-8121
тку	-8122
▁log	-8123
вушка	-8124
▁форму	-8125
▁поздно	-8126
▁contem	-8127
▁стороне	-8128
vol	-8129
▁гри	-8130
▁руководи	-8131
▁раство	-8132
ссий	-8133
▁выступ	-8134
▁любил	-8135
▁посту	-8136
ams	-8137
▁permitted	-8138
▁dollars	-8139
▁nur	-8140
▁результате	-8141
wood	-8142
▁парти	-8143
▁practice	-8144
▁тени	-8145
тических	-8146
▁артилле	-8147
▁Ком	-8148
ischen	-8149
▁попу	-8150
▁слезы	-8151
онов	-8152
нном	-8153
йдя	-8154
▁sail	-8155
▁proble	-8156
▁prove	-8157
▁сосредото	-8158
▁запах	-8159
▁пон	-8160
стной	-8161
▁forty	-8162
▁десяти	-8163
▁compliance	-8164
14	-8165
asse	-8166
▁фотографи	-8167
▁moon	-8168
▁столом	-8169
шали	-8170
пись	-8171
▁solic	-8172
▁Тру	-8173
пки	-8174
▁kiss	-8175
"--	-8176
▁устрой	-8177
▁wij	-8178
She	-8179
горь	-8180
▁tal	-8181
торов	-8182
пры	-8183
▁особо	-8184
Ch	-8185
без	-8186
▁legal	-8187
▁education	-8188
68	-8189
▁cro	-8190
mo	-8191
▁Ке	-8192
erable	-8193
ially	-8194
▁ими	-8195
▁feelings	-8196
▁Jes	-8197
▁поо	-8198
▁хуже	-8199
ege	-8200
▁animal	-8201
пь	-8202
жную	-8203
кипа	-8204
▁худож	-8205
itte	-8206
▁steps	-8207
▁допол	-8208
▁развития	-8209
just	-8210
▁Именно	-8211
▁opposite	-8212
▁faire	-8213
▁produce	-8214
ains	-8215
▁опасно	-8216
▁порядке	-8217
itz	-8218
▁Ал	-8219
▁парень	-8220
▁оза	-8221
лении	-8222
▁rules	-8223
▁Англи	-8224
▁constitution	-8225
▁изум	-8226
▁изда	-8227
▁worse	-8228
lex	-8229
рение	-8230
▁wonderful	-8231
роят	-8232
▁числе	-8233
сред	-8234
retched	-8235
▁turning	-8236
▁weeks	-8237
▁редко	-8238
▁отдел	-8239
▁попытался	-8240
▁сро	-8241
▁ladies	-8242
хой	-8243
▁grass	-8244
▁ат	-8245
жению	-8246
рал	-8247
▁пользу	-8248
▁included	-8249
▁providing	-8250
▁тек	-8251
▁заму	-8252
▁средства	-8253
ющиеся	-8254
▁ниж	-8255
▁clean	-8256
▁NOT	-8257
▁dies	-8258
▁почувствовала	-8259
телю	-8260
▁спектак	-8261
▁agreed	-8262
чалось	-8263
▁главное	-8264
▁нежно	-8265
▁пересе	-8266
▁Et	-8267
▁противополо	-8268
▁contact	-8269
▁sides	-8270
ben	-8271
▁highest	-8272
▁rare	-8273
▁fill	-8274
▁напротив	-8275
▁employed	-8276
▁пусто	-8277
чета	-8278
▁каза	-8279
▁расши	-8280
osa	-8281
▁mult	-8282
▁style	-8283
uis	-8284
альном	-8285
nes	-8286
▁rights	-8287
▁twelve	-8288
▁superior	-8289
▁genius	-8290
▁Oct	-8291
▁кожа	-8292
▁лейтен	-8293
▁cruel	-8294
▁водой	-8295
▁находился	-8296
59	-8297
▁perce	-8298
щался	-8299
idently	-8300
▁мужчин	-8301
▁THIS	-8302
▁Nove	-8303
▁conditions	-8304
▁Old	-8305
fast	-8306
бка	-8307
▁уте	-8308
емого	-8309
ровали	-8310
▁Сам	-8311
▁запре	-8312
▁обре	-8313
рома	-8314
▁изобрет	-8315
▁hero	-8316
ensive	-8317
▁triumph	-8318
▁недавно	-8319
▁фон	-8320
▁дочь	-8321
RA	-8322
▁Ио	-8323
heid	-8324
▁нах	-8325
▁Mich	-8326
ленным	-8327
▁спустя	-8328
▁illustr	-8329
▁looks	-8330
хла	-8331
▁Есть	-8332
▁мили	-8333
▁Bur	-8334
▁подвер	-8335
▁Без	-8336
▁mes	-8337
▁points	-8338
▁наша	-8339
▁affection	-8340
▁роли	-8341
жались	-8342
▁посы	-8343
asc	-8344
ати	-8345
дера	-8346
няет	-8347
▁pictures	-8348
▁vig	-8349
pered	-8350
▁упал	-8351
▁compar	-8352
▁avo	-8353
служи	-8354
▁sans	-8355
rant	-8356
▁vie	-8357
▁разби	-8358
▁повторя	-8359
▁однажды	-8360
зади	-8361
▁вернуться	-8362
▁weight	-8363
anc	-8364
▁эпо	-8365
чительно	-8366
▁possessed	-8367
▁возмо	-8368
тного	-8369
▁sorrow	-8370
▁additional	-8371
▁Гра	-8372
▁189	-8373
бок	-8374
▁editions	-8375
UL	-8376
gt	-8377
▁герцо	-8378
▁покачал	-8379
▁bod	-8380
▁thorough	-8381
▁greatly	-8382
кет	-8383
▁раза	-8384
▁смысл	-8385
▁памяти	-8386
▁bill	-8387
зами	-8388
▁пожи	-8389
▁excellent	-8390
▁IV	-8391
дное	-8392
▁couldn	-8393
▁организа	-8394
urb	-8395
▁exped	-8396
▁север	-8397
▁honest	-8398
▁делает	-8399
ун	-8400
▁скри	-8401
▁establish	-8402
▁упор	-8403
▁mix	-8404
▁som	-8405
женных	-8406
▁wouldn	-8407
▁мыш	-8408
▁кофе	-8409
▁сидела	-8410
ulous	-8411
ems	-8412
▁ni	-8413
▁stir	-8414
ризо	-8415
рили	-8416
▁familiar	-8417
▁восста	-8418
▁дев	-8419
▁disapp	-8420
▁remarkable	-8421
▁экс	-8422
▁лагер	-8423
жено	-8424
ocr	-8425
ступить	-8426
бран	-8427
▁логи	-8428
▁speed	-8429
▁quarter	-8430
▁png	-8431
нье	-8432
▁obliged	-8433
rait	-8434
▁pale	-8435
▁Вскоре	-8436
ственную	-8437
нилась	-8438
▁карто	-8439
▁settled	-8440
▁ждал	-8441
▁обли	-8442
▁спать	-8443
▁отдал	-8444
▁requirements	-8445
▁гал	-8446
▁людям	-8447
▁aid	-8448
▁звез	-8449
▁equally	-8450
pb	-8451
lemn	-8452
▁rail	-8453
▁вероятно	-8454
▁поса	-8455
▁ja	-8456
жены	-8457
▁жили	-8458
▁verb	-8459
▁новых	-8460
▁WILL	-8461
▁Court	-8462
▁Вме	-8463
▁discover	-8464
▁fright	-8465
ссии	-8466
▁bij	-8467
▁fancy	-8468
бет	-8469
▁Po	-8470
▁promise	-8471
▁одея	-8472
▁Очень	-8473
▁rom	-8474
тало	-8475
▁ав	-8476
АН	-8477
мился	-8478
▁отсюда	-8479
▁sake	-8480
▁зелены	-8481
чел	-8482
енная	-8483
▁демо	-8484
ERS	-8485
▁serve	-8486
▁ума	-8487
▁Prince	-8488
дным	-8489
▁остальные	-8490
68;	-8491
бые	-8492
morrow	-8493
▁ordered	-8494
▁плем	-8495
жие	-8496
▁Comp	-8497
erted	-8498
▁space	-8499
▁цве	-8500
icious	-8501
▁наступ	-8502
▁created	-8503
▁lear	-8504
▁advent	-8505
com	-8506
▁обстанов	-8507
▁хочешь	-8508
ville	-8509
▁60	-8510
▁нев	-8511
▁neck	-8512
▁explanation	-8513
ступила	-8514
peror	-8515
▁tor	-8516
An	-8517
▁established	-8518
▁использу	-8519
▁blind	-8520
▁выход	-8521
▁США	-8522
▁чрез	-8523
▁выражение	-8524
▁bab	-8525
▁функ	-8526
нность	-8527
▁принялся	-8528
fortun	-8529
▁pleased	-8530
▁histor	-8531
лко	-8532
▁lean	-8533
▁доктор	-8534
▁большую	-8535
▁abol	-8536
▁получить	-8537
▁cher	-8538
ques	-8539
▁sacri	-8540
▁hes	-8541
▁наверняка	-8542
ними	-8543
▁сердца	-8544
rences	-8545
▁Вам	-8546
▁talking	-8547
несли	-8548
onsieur	-8549
▁око	-8550
слав	-8551
▁аре	-8552
▁цар	-8553
▁stage	-8554
▁/>	-8555
▁ears	-8556
стых	-8557
▁crown	-8558
шала	-8559
▁разных	-8560
▁универ	-8561
pelled	-8562
HN	-8563
▁pieces	-8564
▁solemn	-8565
JECT	-8566
▁леди	-8567
иль	-8568
▁silver	-8569
▁вышли	-8570
▁Colonel	-8571
▁Москве	-8572
▁ens	-8573
orious	-8574
▁fallen	-8575
▁March	-8576
баты	-8577
▁Many	-8578
ourse	-8579
cent	-8580
▁tall	-8581
▁отмет	-8582
▁Между	-8583
▁страх	-8584
▁зага	-8585
▁заметила	-8586
▁thrown	-8587
▁пау	-8588
ua	-8589
▁heads	-8590
юз	-8591
▁угол	-8592
▁поддержи	-8593
▁Свет	-8594
▁отме	-8595
▁clearly	-8596
зила	-8597
▁чуде	-8598
▁resist	-8599
▁энерги	-8600
ips	-8601
▁смысле	-8602
интересо	-8603
хнулся	-8604
гала	-8605
▁kingdom	-8606
▁legisl	-8607
▁ногу	-8608
▁расположен	-8609
скал	-8610
▁выво	-8611
▁впечатление	-8612
град	-8613
шеб	-8614
▁точки	-8615
IE	-8616
▁ныне	-8617
▁жил	-8618
▁July	-8619
▁rejo	-8620
меялся	-8621
хватил	-8622
▁маленький	-8623
▁located	-8624
тим	-8625
спор	-8626
▁взяла	-8627
inen	-8628
▁seat	-8629
▁Джор	-8630
нью	-8631
вании	-8632
▁maar	-8633
▁Потому	-8634
▁граждан	-8635
▁фра	-8636
ченно	-8637
▁loud	-8638
▁дому	-8639
▁fer	-8640
▁навстречу	-8641
гром	-8642
▁Пушки	-8643
▁системы	-8644
▁hills	-8645
▁проте	-8646
▁0,	-8647
лал	-8648
▁deux	-8649
▁altogether	-8650
▁leur	-8651
▁surface	-8652
▁работал	-8653
▁лам	-8654
▁всякий	-8655
▁birth	-8656
▁очевидно	-8657
ешься	-8658
▁regarded	-8659
▁видели	-8660
▁Никто	-8661
▁поводу	-8662
ис	-8663
▁скла	-8664
▁ею	-8665
▁писал	-8666
бля	-8667
▁подви	-8668
▁Afric	-8669
fl	-8670
▁загля	-8671
▁ниже	-8672
rine	-8673
▁smiled	-8674
чении	-8675
▁тет	-8676
▁Up	-8677
▁определя	-8678
деми	-8679
BERG	-8680
▁фаши	-8681
aine	-8682
▁curious	-8683
ye	-8684
▁Bo	-8685
тную	-8686
iting	-8687
▁voy	-8688
▁Дей	-8689
рование	-8690
Do	-8691
▁consequence	-8692
нений	-8693
▁offer	-8694
▁deb	-8695
▁necessity	-8696
▁va	-8697
▁Bra	-8698
▁сда	-8699
▁проше	-8700
3)	-8701
▁distant	-8702
illy	-8703
▁взаимо	-8704
▁сильнее	-8705
стрее	-8706
▁lying	-8707
▁спас	-8708
▁форме	-8709
anges	-8710
▁orders	-8711
фри	-8712
▁event	-8713
▁продук	-8714
лился	-8715
кта	-8716
▁science	-8717
▁wa	-8718
▁Эй	-8719
▁представить	-8720
Ка	-8721
▁BE	-8722
isters	-8723
лл	-8724
▁заставля	-8725
дная	-8726
▁redu	-8727
▁оттуда	-8728
▁процен	-8729
▁видом	-8730
▁следова	-8731
▁June	-8732
сках	-8733
▁голоса	-8734
чалась	-8735
▁series	-8736
▁сделала	-8737
нилось	-8738
▁manif	-8739
▁офице	-8740
▁aim	-8741
▁fault	-8742
▁bal	-8743
никам	-8744
EST	-8745
▁guess	-8746
▁status	-8747
▁перего	-8748
цепи	-8749
▁forced	-8750
▁покой	-8751
▁interests	-8752
esch	-8753
kin	-8754
▁fruit	-8755
▁поцело	-8756
RANT	-8757
▁прием	-8758
▁population	-8759
боро	-8760
▁Mer	-8761
▁страха	-8762
5-1	-8763
▁tong	-8764
pected	-8765
▁hath	-8766
▁несчаст	-8767
▁управля	-8768
▁теп	-8769
▁thin	-8770
▁странно	-8771
ченных	-8772
▁изба	-8773
▁каждой	-8774
▁пола	-8775
▁напомина	-8776
▁предложил	-8777
▁cook	-8778
▁Каз	-8779
▁concl	-8780
▁sought	-8781
uce	-8782
▁Cont	-8783
enses	-8784
▁brave	-8785
▁spiritual	-8786
нимала	-8787
▁spoken	-8788
▁remains	-8789
▁оча	-8790
▁disappe	-8791
▁лицу	-8792
▁труп	-8793
esh	-8794
▁одному	-8795
▁описа	-8796
aked	-8797
▁treated	-8798
▁полицей	-8799
_).	-8800
▁displaying	-8801
▁полага	-8802
▁worthy	-8803
довать	-8804
acht	-8805
▁rent	-8806
▁сидели	-8807
▁tim	-8808
тяну	-8809
▁occupied	-8810
▁заб	-8811
▁instruct	-8812
▁gentlemen	-8813
кура	-8814
▁отвра	-8815
ведливо	-8816
22	-8817
мос	-8818
сибо	-8819
▁dism	-8820
ections	-8821
▁считать	-8822
▁ring	-8823
▁понрави	-8824
▁extraord	-8825
▁finished	-8826
▁прис	-8827
▁suffer	-8828
▁current	-8829
▁определи	-8830
▁pride	-8831
▁направля	-8832
гался	-8833
ЕР	-8834
▁daily	-8835
шта	-8836
▁Амери	-8837
GE	-8838
Не	-8839
▁carefully	-8840
▁taught	-8841
ishop	-8842
▁refer	-8843
▁fees	-8844
▁afford	-8845
▁succeeded	-8846
вав	-8847
▁вез	-8848
▁prem	-8849
▁Итак	-8850
▁машина	-8851
▁учены	-8852
▁judgment	-8853
▁Prof	-8854
▁войск	-8855
▁frequently	-8856
▁стрем	-8857
▁attract	-8858
▁cla	-8859
/1	-8860
quis	-8861
▁вижу	-8862
▁Edward	-8863
pes	-8864
▁воздуш	-8865
егодня	-8866
▁поддер	-8867
▁east	-8868
ores	-8869
▁Сем	-8870
▁ворот	-8871
▁citizens	-8872
▁confidence	-8873
▁streets	-8874
▁строи	-8875
▁contrib	-8876
▁Вто	-8877
van	-8878
строй	-8879
▁Александр	-8880
▁movement	-8881
▁zoo	-8882
▁aston	-8883
▁obtained	-8884
▁предстоя	-8885
▁фона	-8886
▁план	-8887
▁вечера	-8888
емый	-8889
▁упа	-8890
▁Mart	-8891
▁fully	-8892
летел	-8893
▁Johnson	-8894
▁зака	-8895
▁bottom	-8896
▁благодаря	-8897
▁content	-8898
▁Жен	-8899
llen	-8900
▁eine	-8901
▁твердо	-8902
orthern	-8903
▁holder	-8904
▁square	-8905
▁усе	-8906
▁старый	-8907
▁copying	-8908
▁фе	-8909
▁comput	-8910
▁wine	-8911
голь	-8912
▁состояние	-8913
▁bare	-8914
AND	-8915
▁Николай	-8916
▁anxious	-8917
amber	-8918
оте	-8919
мера	-8920
▁natur	-8921
▁улицу	-8922
▁приез	-8923
▁Constitution	-8924
asons	-8925
▁запла	-8926
▁Моло	-8927
▁первые	-8928
мит	-8929
▁farm	-8930
▁вода	-8931
▁murm	-8932
▁Мари	-8933
ив	-8934
▁Ря	-8935
arsh	-8936
▁fate	-8937
шит	-8938
▁Ос	-8939
▁неделю	-8940
▁соответству	-8941
▁aband	-8942
41;	-8943
▁Тер	-8944
▁countries	-8945
стным	-8946
▁тюрь	-8947
▁взо	-8948
▁подъ	-8949
▁brill	-8950
▁анали	-8951
▁rain	-8952
▁стараясь	-8953
вка	-8954
▁na	-8955
▁выпи	-8956
▁Sim	-8957
▁record	-8958
▁caused	-8959
▁знаком	-8960
▁стой	-8961
альности	-8962
▁ED	-8963
▁inhabitants	-8964
rend	-8965
acity	-8966
▁NE	-8967
gged	-8968
▁Нес	-8969
igned	-8970
▁prefer	-8971
▁besides	-8972
▁1-	-8973
▁sup	-8974
▁одет	-8975
▁darkness	-8976
idden	-8977
▁drawing	-8978
▁willing	-8979
▁пистолет	-8980
▁ben	-8981
iform	-8982
▁yield	-8983
кции	-8984
лений	-8985
▁деревья	-8986
▁threw	-8987
▁Dan	-8988
▁хру	-8989
▁насколько	-8990
▁Зачем	-8991
▁companion	-8992
▁Бон	-8993
▁defend	-8994
▁мужи	-8995
▁неприят	-8996
St	-8997
▁ори	-8998
▁Серге	-8999
▁emp	-9000
▁изви	-9001
▁credit	-9002
▁Fred	-9003
▁большие	-9004
шав	-9005
▁изго	-9006
▁admitted	-9007
▁собственной	-9008
olic	-9009
▁пошла	-9010
▁pack	-9011
▁cho	-9012
▁реали	-9013
▁presented	-9014
▁exhib	-9015
▁отношении	-9016
▁wear	-9017
▁душу	-9018
▁зубы	-9019
ус	-9020
▁старик	-9021
ailed	-9022
лением	-9023
▁Вд	-9024
▁кара	-9025
acle	-9026
onies	-9027
всегда	-9028
вит	-9029
▁fait	-9030
▁направился	-9031
_:	-9032
▁Information	-9033
▁отрица	-9034
шень	-9035
▁Несколько	-9036
Is	-9037
▁сэр	-9038
▁филь	-9039
чность	-9040
▁consideration	-9041
▁march	-9042
▁Вне	-9043
ITH	-9044
▁запо	-9045
▁disclaim	-9046
▁Romans	-9047
веро	-9048
▁оправ	-9049
▁весело	-9050
▁November	-9051
▁enth	-9052
▁любит	-9053
шили	-9054
▁первую	-9055
стали	-9056
▁undert	-9057
58	-9058
▁conclud	-9059
▁Jer	-9060
▁никому	-9061
ели	-9062
▁dim	-9063
▁дивизии	-9064
▁Web	-9065
гнуть	-9066
вец	-9067
▁innoc	-9068
▁famous	-9069
▁powerful	-9070
▁dwell	-9071
пустить	-9072
▁Pal	-9073
дли	-9074
▁драматур	-9075
бах	-9076
▁класси	-9077
жке	-9078
▁секунду	-9079
▁preced	-9080
▁выго	-9081
▁беспокой	-9082
▁ta	-9083
▁кино	-9084
▁экипа	-9085
ём	-9086
ента	-9087
телям	-9088
ехала	-9089
aker	-9090
▁вере	-9091
▁сен	-9092
лле	-9093
тке	-9094
▁страшно	-9095
▁clothes	-9096
▁printed	-9097
▁lies	-9098
▁бумаги	-9099
aks	-9100
▁policy	-9101
▁ANY	-9102
нтов	-9103
▁этими	-9104
▁правильно	-9105
▁существует	-9106
бежал	-9107
▁мисс	-9108
чена	-9109
▁Men	-9110
▁считал	-9111
▁expressed	-9112
гнула	-9113
ИН	-9114
▁Dor	-9115
▁реш	-9116
▁Carol	-9117
▁знамени	-9118
riend	-9119
▁subs	-9120
ENBERG	-9121
▁пошли	-9122
▁animals	-9123
▁Сегодня	-9124
▁Лит	-9125
alous	-9126
▁небольшой	-9127
▁крыль	-9128
▁Среди	-9129
▁другими	-9130
▁чай	-9131
ulf	-9132
40;	-9133
isp	-9134
▁Воло	-9135
▁условиях	-9136
▁восемь	-9137
▁burst	-9138
▁штур	-9139
яз	-9140
▁Ино	-9141
▁километ	-9142
▁случайно	-9143
ese	-9144
чится	-9145
▁появилась	-9146
ril	-9147
нина	-9148
▁woods	-9149
деся	-9150
▁previous	-9151
▁mu	-9152
▁subjects	-9153
▁теря	-9154
▁rou	-9155
▁добы	-9156
нера	-9157
▁шею	-9158
сив	-9159
пон	-9160
▁букв	-9161
▁диа	-9162
▁студен	-9163
ido	-9164
▁exactly	-9165
▁хочется	-9166
▁выдер	-9167
▁каком	-9168
дке	-9169
▁exem	-9170
тические	-9171
▁mi	-9172
▁minds	-9173
▁угодно	-9174
▁request	-9175
стные	-9176
▁звук	-9177
▁блестя	-9178
▁duties	-9179
▁приподня	-9180
will	-9181
▁Мон	-9182
▁труда	-9183
▁brown	-9184
▁published	-9185
▁пальцами	-9186
▁Пос	-9187
▁отки	-9188
▁пояс	-9189
▁цент	-9190
▁myst	-9191
▁превос	-9192
▁Ху	-9193
ерков	-9194
▁Просто	-9195
▁полной	-9196
▁bold	-9197
ieu	-9198
▁принял	-9199
aret	-9200
▁заве	-9201
▁brief	-9202
▁format	-9203
▁искать	-9204
▁valley	-9205
▁думала	-9206
elf	-9207
▁watched	-9208
▁useful	-9209
▁entertain	-9210
▁всяком	-9211
▁понимаю	-9212
▁CO	-9213
▁cele	-9214
▁розо	-9215
▁loose	-9216
▁раст	-9217
▁тотчас	-9218
▁великоле	-9219
▁отор	-9220
нную	-9221
фици	-9222
▁PROJECT	-9223
era	-9224
▁следовало	-9225
▁сва	-9226
▁leading	-9227
Don	-9228
▁некоторых	-9229
доби	-9230
няется	-9231
За	-9232
▁непосред	-9233
щет	-9234
▁Brown	-9235
ходу	-9236
гий	-9237
▁aud	-9238
▁долла	-9239
▁стране	-9240
▁строго	-9241
▁proportion	-9242
▁inquir	-9243
▁достоин	-9244
▁позд	-9245
▁glory	-9246
▁переме	-9247
usted	-9248
эт	-9249
▁GUT	-9250
▁шка	-9251
ca	-9252
▁rank	-9253
▁Похо	-9254
▁ont	-9255
▁transl	-9256
▁relation	-9257
▁online	-9258
ом	-9259
▁JOHN	-9260
yr	-9261
atures	-9262
▁papers	-9263
▁WARRANT	-9264
alled	-9265
▁схватил	-9266
▁тщательно	-9267
▁окончательно	-9268
лам	-9269
▁clim	-9270
▁врага	-9271
▁isn	-9272
atory	-9273
▁sword	-9274
▁Некото	-9275
urd	-9276
вив	-9277
▁sche	-9278
angers	-9279
▁бю	-9280
ванный	-9281
Now	-9282
gers	-9283
▁equip	-9284
▁100	-9285
▁GUTENBERG	-9286
▁advance	-9287
▁weather	-9288
ющийся	-9289
▁summ	-9290
itated	-9291
▁бара	-9292
▁власть	-9293
▁тка	-9294
AV	-9295
▁spect	-9296
ential	-9297
▁путем	-9298
▁forgotten	-9299
▁Ост	-9300
чне	-9301
▁altern	-9302
▁gate	-9303
вана	-9304
▁Gree	-9305
▁Est	-9306
стных	-9307
▁sorry	-9308
печа	-9309
astic	-9310
▁faint	-9311
дкой	-9312
thur	-9313
estic	-9314
▁Девушка	-9315
▁брата	-9316
▁limited	-9317
iner	-9318
kind	-9319
▁4,	-9320
▁Spe	-9321
▁клет	-9322
▁ничто	-9323
▁сознание	-9324
▁hearts	-9325
▁брать	-9326
▁otherwise	-9327
▁color	-9328
▁устало	-9329
rij	-9330
▁waar	-9331
▁институ	-9332
▁прокля	-9333
gs	-9334
▁начале	-9335
▁Bes	-9336
▁Два	-9337
тол	-9338
▁refused	-9339
▁секунд	-9340
ky	-9341
▁stranger	-9342
чия	-9343
eping	-9344
▁marry	-9345
пливо	-9346
чайно	-9347
тики	-9348
▁check	-9349
ань	-9350
▁священ	-9351
тина	-9352
▁Two	-9353
▁growing	-9354
▁гг	-9355
asts	-9356
▁сидя	-9357
ждении	-9358
▁философи	-9359
ouv	-9360
▁вон	-9361
▁pred	-9362
▁wisdom	-9363
▁отпу	-9364
▁близко	-9365
▁первых	-9366
▁чаще	-9367
▁district	-9368
ja	-9369
гим	-9370
▁bow	-9371
▁спор	-9372
▁запол	-9373
▁shadow	-9374
key	-9375
рыз	-9376
ственности	-9377
▁mighty	-9378
▁severe	-9379
▁умира	-9380
▁солнца	-9381
▁186	-9382
▁подозре	-9383
лял	-9384
▁distinguished	-9385
▁confess	-9386
▁Бог	-9387
▁направлении	-9388
▁глупо	-9389
▁касается	-9390
oman	-9391
▁correct	-9392
▁пласти	-9393
kt	-9394
unch	-9395
▁purch	-9396
▁Ис	-9397
▁Royal	-9398
▁worked	-9399
lie	-9400
▁prince	-9401
ментов	-9402
▁истре	-9403
▁доказа	-9404
▁nice	-9405
▁обма	-9406
▁Вол	-9407
ниться	-9408
▁glance	-9409
сия	-9410
hand	-9411
▁lake	-9412
▁wand	-9413
▁поступ	-9414
▁обязательно	-9415
ёт	-9416
▁Человек	-9417
ipped	-9418
▁Feb	-9419
ctions	-9420
olt	-9421
ните	-9422
▁accompan	-9423
▁mode	-9424
MAN	-9425
▁руб	-9426
36	-9427
емон	-9428
хал	-9429
▁species	-9430
▁Лор	-9431
▁thro	-9432
▁tea	-9433
где	-9434
▁dece	-9435
дают	-9436
▁система	-9437
▁Пла	-9438
▁exceed	-9439
PH	-9440
альше	-9441
▁fish	-9442
▁сапо	-9443
стры	-9444
▁este	-9445
▁столе	-9446
26	-9447
▁Глаза	-9448
▁respons	-9449
▁Сущность	-9450
▁реки	-9451
pro	-9452
▁группа	-9453
▁перево	-9454
ria	-9455
▁shook	-9456
▁approach	-9457
▁карма	-9458
▁посвя	-9459
ллю	-9460
▁Вдруг	-9461
кса	-9462
],	-9463
▁проек	-9464
enced	-9465
▁немало	-9466
▁Ir	-9467
рэ	-9468
оборот	-9469
▁Senate	-9470
iation	-9471
conom	-9472
▁выйти	-9473
▁недели	-9474
▁Спа	-9475
▁супру	-9476
▁водо	-9477
▁отре	-9478
▁села	-9479
arest	-9480
67;	-9481
▁Cla	-9482
ama	-9483
▁Пра	-9484
следования	-9485
зой	-9486
щала	-9487
▁горизо	-9488
▁поцелу	-9489
▁прак	-9490
▁позади	-9491
▁прогу	-9492
▁era	-9493
▁faces	-9494
pie	-9495
нья	-9496
▁arr	-9497
▁ярко	-9498
▁архи	-9499
▁events	-9500
▁dropped	-9501
▁дека	-9502
▁instr	-9503
▁оди	-9504
▁promised	-9505
▁оцени	-9506
atre	-9507
▁живет	-9508
▁темпера	-9509
▁остались	-9510
Then	-9511
▁Yes	-9512
▁возму	-9513
▁командир	-9514
▁тридцать	-9515
▁?	-9516
▁cool	-9517
цах	-9518
ческими	-9519
▁воде	-9520
▁rough	-9521
▁опро	-9522
▁остается	-9523
▁перво	-9524
oi	-9525
NE	-9526
▁коллек	-9527
▁Latin	-9528
сыпа	-9529
▁религи	-9530
▁Вал	-9531
▁Sund	-9532
▁делал	-9533
▁rising	-9534
▁смотрели	-9535
▁literature	-9536
oms	-9537
ederal	-9538
cies	-9539
▁гордо	-9540
seud	-9541
емых	-9542
тным	-9543
▁opening	-9544
лами	-9545
don	-9546
▁regret	-9547
▁holding	-9548
вами	-9549
ербур	-9550
кнуть	-9551
▁increased	-9552
▁birds	-9553
▁отправился	-9554
▁Сла	-9555
▁никакой	-9556
▁благодар	-9557
▁озе	-9558
стил	-9559
▁major	-9560
▁Казалось	-9561
льф	-9562
▁Bet	-9563
▁историю	-9564
▁separate	-9565
▁blow	-9566
▁price	-9567
▁мальчик	-9568
mar	-9569
▁committed	-9570
▁философ	-9571
рка	-9572
▁интер	-9573
▁установи	-9574
▁hoo	-9575
▁состав	-9576
▁empt	-9577
▁Чем	-9578
ленная	-9579
ъек	-9580
▁Mil	-9581
народ	-9582
▁целью	-9583
▁память	-9584
rose	-9585
▁позна	-9586
▁вари	-9587
▁вор	-9588
▁подошла	-9589
льного	-9590
▁benef	-9591
▁позже	-9592
▁чувствовала	-9593
гин	-9594
▁последнее	-9595
▁действий	-9596
mas	-9597
кадеми	-9598
▁Сначала	-9599
▁catch	-9600
▁Гру	-9601
▁perman	-9602
▁gain	-9603
▁constant	-9604
▁remembered	-9605
▁cultiv	-9606
▁откров	-9607
▁More	-9608
▁месяцев	-9609
вности	-9610
тием	-9611
▁закри	-9612
▁совершен	-9613
▁воскли	-9614
▁управления	-9615
ждый	-9616
▁roof	-9617
▁спут	-9618
oting	-9619
▁Алла	-9620
▁мас	-9621
▁sevent	-9622
▁gle	-9623
see	-9624
▁pens	-9625
▁Ann	-9626
▁случаях	-9627
▁Оно	-9628
▁прия	-9629
▁друзей	-9630
▁начало	-9631
▁побли	-9632
uts	-9633
вным	-9634
▁parties	-9635
цвет	-9636
▁Pat	-9637
▁специали	-9638
вато	-9639
кну	-9640
▁моги	-9641
▁индиви	-9642
▁поставил	-9643
uries	-9644
шай	-9645
▁Ши	-9646
▁remarked	-9647
▁Jose	-9648
▁твой	-9649
▁interv	-9650
шок	-9651
пель	-9652
▁Джа	-9653
bling	-9654
ancy	-9655
izing	-9656
▁дух	-9657
▁pocket	-9658
▁письма	-9659
женной	-9660
▁reck	-9661
▁уйти	-9662
▁фронта	-9663
АТ	-9664
▁reven	-9665
▁Him	-9666
▁женщину	-9667
▁dram	-9668
▁supply	-9669
▁темноте	-9670
▁машине	-9671
▁ain	-9672
▁Васи	-9673
een	-9674
▁failed	-9675
енье	-9676
влению	-9677
▁останавли	-9678
▁sig	-9679
▁безопасности	-9680
ждает	-9681
▁{	-9682
▁зная	-9683
▁Your	-9684
▁singular	-9685
▁деятельность	-9686
▁ответа	-9687
▁решительно	-9688
▁укры	-9689
▁обру	-9690
▁строй	-9691
▁красно	-9692
▁extraordinary	-9693
aper	-9694
inte	-9695
▁разные	-9696
▁uniform	-9697
▁примерно	-9698
ITED	-9699
щением	-9700
▁dangerous	-9701
▁treatment	-9702
бая	-9703
▁держал	-9704
▁Сергей	-9705
▁receiving	-9706
ipt	-9707
▁конкре	-9708
▁lose	-9709
▁minister	-9710
▁честь	-9711
▁сей	-9712
▁Arthur	-9713
▁assistance	-9714
▁разы	-9715
▁бабу	-9716
▁[_	-9717
▁rate	-9718
▁Фо	-9719
▁четырех	-9720
▁согласился	-9721
▁constit	-9722
▁mile	-9723
42;	-9724
▁sacred	-9725
ктив	-9726
тельными	-9727
▁Таким	-9728
▁прось	-9729
▁Neg	-9730
▁днем	-9731
▁рассказал	-9732
▁Nature	-9733
▁забра	-9734
▁yellow	-9735
ari	-9736
чон	-9737
▁celebr	-9738
▁divine	-9739
▁изобретения	-9740
чению	-9741
▁приказал	-9742
▁Ser	-9743
▁nach	-9744
▁вряд	-9745
жима	-9746
▁bon	-9747
▁винова	-9748
▁merch	-9749
▁explained	-9750
▁преи	-9751
▁EX	-9752
rier	-9753
▁кло	-9754
▁suggested	-9755
▁шут	-9756
щиков	-9757
▁Peter	-9758
▁naturally	-9759
eren	-9760
▁сомнения	-9761
▁eene	-9762
ену	-9763
стное	-9764
▁Иногда	-9765
_)	-9766
щина	-9767
▁pity	-9768
uary	-9769
скольз	-9770
▁pounds	-9771
▁stories	-9772
▁постави	-9773
▁sympathy	-9774
▁soldier	-9775
▁провел	-9776
вный	-9777
▁improve	-9778
icks	-9779
▁подс	-9780
▁скром	-9781
▁edge	-9782
▁ice	-9783
▁attain	-9784
летов	-9785
▁медици	-9786
▁организо	-9787
ьют	-9788
▁Italian	-9789
▁persu	-9790
кер	-9791
бло	-9792
▁речи	-9793
▁Ника	-9794
▁contrary	-9795
▁нетер	-9796
athered	-9797
aches	-9798
▁ons	-9799
нс	-9800
▁Med	-9801
▁engine	-9802
▁However	-9803
щали	-9804
De	-9805
ena	-9806
omb	-9807
umber	-9808
▁size	-9809
лке	-9810
▁forces	-9811
▁199	-9812
▁малы	-9813
щались	-9814
cknow	-9815
verse	-9816
▁дура	-9817
▁нечего	-9818
75	-9819
gypt	-9820
▁Had	-9821
▁ach	-9822
ступает	-9823
▁Чар	-9824
▁проблемы	-9825
azine	-9826
тября	-9827
▁крепо	-9828
▁poetry	-9829
▁собирался	-9830
▁стару	-9831
▁руковод	-9832
och	-9833
For	-9834
▁обстоятельства	-9835
▁Рас	-9836
aba	-9837
стного	-9838
▁балет	-9839
▁fortun	-9840
▁stands	-9841
zy	-9842
▁fac	-9843
▁salt	-9844
ографи	-9845
ieve	-9846
orous	-9847
▁flesh	-9848
▁мама	-9849
▁церк	-9850
";	-9851
▁Mark	-9852
▁Генера	-9853
туру	-9854
▁Perhaps	-9855
▁желания	-9856
жав	-9857
хан	-9858
▁variety	-9859
▁эпи	-9860
▁treas	-9861
▁aside	-9862
▁раздался	-9863
▁explain	-9864
чают	-9865
▁вес	-9866
▁eld	-9867
▁becomes	-9868
шко	-9869
нились	-9870
▁формы	-9871
▁показал	-9872
ющем	-9873
▁кле	-9874
▁возника	-9875
▁peu	-9876
▁fart	-9877
▁David	-9878
can	-9879
▁Сколько	-9880
▁тала	-9881
ственность	-9882
хали	-9883
шила	-9884
▁Кри	-9885
альными	-9886
▁моим	-9887
▁Кей	-9888
▁середи	-9889
▁наве	-9890
▁durch	-9891
fle	-9892
▁проявля	-9893
▁профессион	-9894
▁посла	-9895
▁малей	-9896
▁история	-9897
olf	-9898
▁промыш	-9899
▁поду	-9900
▁типа	-9901
▁охот	-9902
▁acknow	-9903
▁чудови	-9904
▁Wal	-9905
▁Union	-9906
▁месяц	-9907
39;	-9908
▁лесу	-9909
ements	-9910
▁180	-9911
▁pointed	-9912
chief	-9913
▁обнаружил	-9914
▁связь	-9915
▁understanding	-9916
osen	-9917
АР	-9918
▁imagine	-9919
▁Але	-9920
вале	-9921
acc	-9922
irect	-9923
using	-9924
▁машин	-9925
яться	-9926
▁суд	-9927
▁ухо	-9928
▁струк	-9929
▁корабль	-9930
▁Good	-9931
▁Анна	-9932
▁butter	-9933
▁прикос	-9934
▁belief	-9935
жное	-9936
▁волшеб	-9937
дю	-9938
▁сознания	-9939
мно	-9940
▁shoulders	-9941
lier	-9942
▁dare	-9943
▁множество	-9944
79	-9945
поли	-9946
▁неё	-9947
▁prepar	-9948
▁creature	-9949
▁лежала	-9950
▁служа	-9951
▁прист	-9952
▁teacher	-9953
сторон	-9954
ella	-9955
umes	-9956
▁served	-9957
▁lod	-9958
**	-9959
▁sugar	-9960
▁Richard	-9961
▁Jesus	-9962
▁knight	-9963
спубли	-9964
▁регу	-9965
ici	-9966
jud	-9967
▁actually	-9968
▁приводи	-9969
▁Art	-9970
▁Рей	-9971
▁anywhere	-9972
▁поверхности	-9973
▁talked	-9974
▁семьи	-9975
▁spirits	-9976
▁Scot	-9977
Ма	-9978
▁большая	-9979
▁breakfast	-9980
бам	-9981
▁Tra	-9982
▁machine	-9983
▁haar	-9984
All	-9985
▁брига	-9986
4-	-9987
▁admin	-9988
▁proceeded	-9989
▁жены	-9990
▁мгновенно	-9991
▁ded	-9992
▁пришли	-9993
edy	-9994
бую	-9995
▁ред	-9996
▁ть	-9997
▁fingers	-9998
▁knowing	-9999
жаться	-10000
▁double	-10001
▁evidently	-10002
▁прида	-10003
cho	-10004
▁леса	-10005
▁India	-10006
▁Street	-10007
▁сверху	-10008
▁навсегда	-10009
fect	-10010
▁shoulder	-10011
▁бросился	-10012
▁Маль	-10013
▁Egypt	-10014
▁удовлетвор	-10015
▁thank	-10016
▁распах	-10017
▁пр	-10018
▁Вар	-10019
▁порядок	-10020
CII	-10021
▁surprised	-10022
Ah	-10023
▁golden	-10024
▁suffered	-10025
▁unh	-10026
theless	-10027
нда	-10028
▁указы	-10029
lls	-10030
▁article	-10031
тное	-10032
▁внизу	-10033
▁прочь	-10034
▁needed	-10035
▁метров	-10036
▁ряд	-10037
▁Alex	-10038
▁горы	-10039
irk	-10040
▁Ah	-10041
▁подняла	-10042
▁Лин	-10043
▁seek	-10044
▁финан	-10045
ivity	-10046
▁quietly	-10047
▁выско	-10048
стами	-10049
бенок	-10050
▁достал	-10051
▁myster	-10052
▁Каждый	-10053
▁вздро	-10054
▁сорок	-10055
▁Оста	-10056
вленно	-10057
mbled	-10058
▁природы	-10059
ouw	-10060
тию	-10061
▁Дон	-10062
▁противоре	-10063
gent	-10064
емые	-10065
▁Голо	-10066
▁душа	-10067
▁исследова	-10068
▁Щ	-10069
▁sentiment	-10070
▁през	-10071
▁незна	-10072
▁суда	-10073
▁centre	-10074
▁нало	-10075
▁незави	-10076
▁acquaint	-10077
▁посмотреть	-10078
▁присо	-10079
uk	-10080
▁постав	-10081
▁иностран	-10082
▁grown	-10083
bury	-10084
orne	-10085
▁ric	-10086
▁hosp	-10087
▁nine	-10088
▁решили	-10089
69;	-10090
▁reader	-10091
▁камень	-10092
iest	-10093
▁Послед	-10094
шками	-10095
▁тень	-10096
ische	-10097
▁enthus	-10098
▁struggle	-10099
▁practical	-10100
jesty	-10101
▁novel	-10102
лева	-10103
ito	-10104
▁Роб	-10105
▁замол	-10106
▁advanced	-10107
ouve	-10108
▁breast	-10109
▁дре	-10110
▁Hart	-10111
▁камер	-10112
▁Эн	-10113
▁deriv	-10114
еми	-10115
гани	-10116
▁nog	-10117
▁occurred	-10118
▁оставил	-10119
▁смотрит	-10120
▁45	-10121
▁pseud	-10122
▁dar	-10123
▁waited	-10124
хар	-10125
▁большое	-10126
тический	-10127
▁разумеется	-10128
▁запу	-10129
▁коме	-10130
▁экра	-10131
това	-10132
▁Jo	-10133
жили	-10134
▁dust	-10135
▁послыш	-10136
▁фир	-10137
вились	-10138
▁Кенди	-10139
▁предна	-10140
▁demanded	-10141
▁Нам	-10142
▁virtue	-10143
▁снял	-10144
▁instinct	-10145
▁маг	-10146
▁Im	-10147
вное	-10148
▁знак	-10149
▁забыл	-10150
эль	-10151
▁оты	-10152
▁чле	-10153
▁task	-10154
▁хит	-10155
▁наблюда	-10156
▁лен	-10157
▁незнако	-10158
полз	-10159
▁игру	-10160
▁ез	-10161
MENT	-10162
▁эмо	-10163
▁Wor	-10164
▁тысячи	-10165
▁пуль	-10166
▁торго	-10167
▁granted	-10168
читал	-10169
чуть	-10170
.-	-10171
rap	-10172
▁ga	-10173
ьи	-10174
▁nos	-10175
мотал	-10176
▁Serv	-10177
utt	-10178
▁Фили	-10179
▁Scott	-10180
▁попросил	-10181
UD	-10182
ushing	-10183
▁impression	-10184
рета	-10185
▁prepare	-10186
▁Madame	-10187
▁другая	-10188
нор	-10189
▁объяснить	-10190
пнул	-10191
шенный	-10192
aft	-10193
▁см	-10194
▁saf	-10195
▁Свя	-10196
▁деви	-10197
▁alive	-10198
▁admit	-10199
▁surely	-10200
▁relief	-10201
cis	-10202
▁Hist	-10203
▁ответить	-10204
ione	-10205
▁Муж	-10206
lor	-10207
▁Люди	-10208
▁жизнью	-10209
альность	-10210
▁sovere	-10211
▁gel	-10212
▁attached	-10213
▁иди	-10214
▁wasn	-10215
▁gloom	-10216
▁equipment	-10217
▁лов	-10218
▁older	-10219
▁металли	-10220
▁protection	-10221
▁applicable	-10222
▁девушку	-10223
▁uncle	-10224
▁Spain	-10225
ivered	-10226
пот	-10227
▁арти	-10228
леб	-10229
▁Joseph	-10230
▁искрен	-10231
йся	-10232
▁имен	-10233
RY	-10234
ida	-10235
▁постара	-10236
-19	-10237
▁Бро	-10238
▁crime	-10239
▁interrupt	-10240
надцати	-10241
▁cow	-10242
▁куп	-10243
▁shape	-10244
▁микро	-10245
вшему	-10246
▁Нью	-10247
▁Тол	-10248
▁Лицо	-10249
▁performing	-10250
▁государства	-10251
ОР	-10252
utation	-10253
▁можете	-10254
способ	-10255
вшуюся	-10256
▁regul	-10257
▁restrict	-10258
▁суро	-10259
▁пребы	-10260
▁license	-10261
▁Duke	-10262
мысли	-10263
▁третий	-10264
▁церков	-10265
rors	-10266
▁бом	-10267
▁rocks	-10268
деб	-10269
▁aware	-10270
▁satisfied	-10271
▁пое	-10272
▁поми	-10273
▁travel	-10274
ченной	-10275
▁182	-10276
▁Eliz	-10277
iere	-10278
▁волос	-10279
▁Inc	-10280
▁бок	-10281
itate	-10282
хнула	-10283
▁будь	-10284
OS	-10285
рисо	-10286
otes	-10287
▁поры	-10288
▁связ	-10289
▁старался	-10290
▁choose	-10291
▁нашу	-10292
ALL	-10293
ОН	-10294
▁san	-10295
▁waters	-10296
▁секрета	-10297
▁верши	-10298
▁родствен	-10299
sten	-10300
▁скре	-10301
▁возвы	-10302
▁connected	-10303
▁девочка	-10304
▁услу	-10305
▁довери	-10306
▁Sw	-10307
▁XI	-10308
нимали	-10309
▁objects	-10310
▁territory	-10311
book	-10312
▁introduced	-10313
жите	-10314
чнее	-10315
▁солне	-10316
▁прер	-10317
rey	-10318
▁obst	-10319
вшимся	-10320
▁philosophy	-10321
ras	-10322
▁дым	-10323
▁views	-10324
▁parents	-10325
▁enemies	-10326
▁имеют	-10327
жными	-10328
▁ресто	-10329
▁внутрь	-10330
tering	-10331
▁помню	-10332
▁Spanish	-10333
тек	-10334
▁Луч	-10335
▁control	-10336
тная	-10337
▁bag	-10338
aling	-10339
▁количество	-10340
стям	-10341
▁tired	-10342
▁econom	-10343
зительно	-10344
▁делом	-10345
▁provisions	-10346
ati	-10347
луч	-10348
▁driven	-10349
▁exercise	-10350
ANT	-10351
bra	-10352
▁Before	-10353
▁carrying	-10354
▁написал	-10355
▁gew	-10356
mond	-10357
▁dise	-10358
▁Fort	-10359
▁поль	-10360
выр	-10361
▁bew	-10362
▁Each	-10363
▁веще	-10364
▁господин	-10365
▁wholly	-10366
IB	-10367
▁finding	-10368
▁flat	-10369
▁ката	-10370
▁amid	-10371
VER	-10372
гут	-10373
five	-10374
▁месяца	-10375
трин	-10376
icip	-10377
ads	-10378
▁жар	-10379
▁Love	-10380
▁дур	-10381
щаясь	-10382
▁заба	-10383
▁абсолютно	-10384
ам	-10385
▁description	-10386
тю	-10387
ос	-10388
▁пале	-10389
шены	-10390
▁links	-10391
▁твое	-10392
▁larger	-10393
▁повернулась	-10394
▁россий	-10395
70;	-10396
стен	-10397
icism	-10398
anks	-10399
▁черт	-10400
▁учени	-10401
▁retain	-10402
▁Ладно	-10403
▁imagination	-10404
ardon	-10405
▁Heaven	-10406
arse	-10407
▁черные	-10408
▁windows	-10409
стся	-10410
▁Констан	-10411
ULL	-10412
▁команду	-10413
bro	-10414
▁gest	-10415
▁млад	-10416
▁East	-10417
▁зало	-10418
dra	-10419
▁отношение	-10420
▁оке	-10421
▁Never	-10422
▁стакан	-10423
ainted	-10424
▁excit	-10425
▁обернулся	-10426
▁прости	-10427
▁consist	-10428
▁деревьев	-10429
▁организации	-10430
▁Пав	-10431
▁разгля	-10432
▁труд	-10433
▁member	-10434
kins	-10435
▁кисло	-10436
▁noticed	-10437
▁accident	-10438
▁Michael	-10439
▁bull	-10440
kel	-10441
▁электри	-10442
▁pick	-10443
▁лоб	-10444
▁proposed	-10445
▁apparently	-10446
▁lands	-10447
▁жив	-10448
▁handsome	-10449
▁причина	-10450
зили	-10451
▁yards	-10452
▁разобра	-10453
▁осмотре	-10454
низм	-10455
▁воздей	-10456
▁являются	-10457
▁Ры	-10458
▁зри	-10459
▁соз	-10460
▁libr	-10461
▁успокои	-10462
▁grate	-10463
▁joined	-10464
▁smoke	-10465
rab	-10466
▁многочис	-10467
▁creating	-10468
циях	-10469
▁sole	-10470
ложение	-10471
▁swift	-10472
▁шести	-10473
▁Sal	-10474
▁web	-10475
78	-10476
▁limitation	-10477
влечь	-10478
▁Win	-10479
▁wag	-10480
▁dogs	-10481
▁скажу	-10482
▁paying	-10483
▁такими	-10484
▁прон	-10485
▁Гре	-10486
▁доче	-10487
нато	-10488
astern	-10489
▁фантасти	-10490
вшаяся	-10491
▁egg	-10492
ga	-10493
▁prayer	-10494
▁воздуха	-10495
▁кресло	-10496
▁бег	-10497
ecause	-10498
▁лошади	-10499
▁Port	-10500
▁призы	-10501
▁видит	-10502
▁наслед	-10503
крови	-10504
▁resolution	-10505
gan	-10506
▁adopted	-10507
▁flo	-10508
ходе	-10509
iller	-10510
',	-10511
▁Russia	-10512
▁Secret	-10513
▁murder	-10514
When	-10515
vi	-10516
▁invest	-10517
СК	-10518
▁tous	-10519
▁нака	-10520
▁полка	-10521
итле	-10522
▁title	-10523
▁провери	-10524
ровки	-10525
▁conj	-10526
▁шер	-10527
▁telling	-10528
▁крикнул	-10529
▁маги	-10530
▁задер	-10531
▁desired	-10532
inder	-10533
▁Marie	-10534
▁beat	-10535
▁шту	-10536
лению	-10537
lain	-10538
ногие	-10539
▁Однажды	-10540
▁shame	-10541
▁Professor	-10542
ровала	-10543
▁tour	-10544
nding	-10545
▁Андре	-10546
▁defective	-10547
▁въ	-10548
▁ходу	-10549
▁treaty	-10550
▁pretend	-10551
▁иллю	-10552
▁гвар	-10553
▁rub	-10554
▁относительно	-10555
▁неуда	-10556
▁perpet	-10557
вина	-10558
▁wants	-10559
▁happen	-10560
55	-10561
▁евре	-10562
OOK	-10563
▁Hill	-10564
▁gradually	-10565
▁3.	-10566
▁Life	-10567
▁reign	-10568
▁короля	-10569
▁seized	-10570
▁cities	-10571
oqu	-10572
▁writer	-10573
▁рано	-10574
▁tempt	-10575
форми	-10576
▁ощущение	-10577
щики	-10578
amen	-10579
▁рва	-10580
▁разда	-10581
шено	-10582
▁стихи	-10583
▁целый	-10584
▁2.	-10585
plic	-10586
▁Савели	-10587
▁дает	-10588
▁ждет	-10589
gest	-10590
sell	-10591
▁висе	-10592
чах	-10593
▁техни	-10594
▁Отец	-10595
▁телефо	-10596
pen	-10597
▁терп	-10598
▁легче	-10599
▁расхо	-10600
iber	-10601
▁Hall	-10602
lot	-10603
▁Sunday	-10604
▁быстрее	-10605
IGH	-10606
▁обыкнов	-10607
1)	-10608
▁побы	-10609
Ib	-10610
спорт	-10611
▁встречи	-10612
▁частности	-10613
▁моро	-10614
женного	-10615
▁осталась	-10616
▁ASCII	-10617
▁ships	-10618
▁friendship	-10619
▁unknown	-10620
Let	-10621
▁defe	-10622
▁контра	-10623
▁муз	-10624
▁скольз	-10625
▁пальцем	-10626
зен	-10627
▁Ев	-10628
ption	-10629
рали	-10630
▁saved	-10631
▁Васили	-10632
▁компании	-10633
эл	-10634
▁bent	-10635
▁плю	-10636
бий	-10637
ванные	-10638
▁магази	-10639
▁решения	-10640
▁посети	-10641
йтесь	-10642
▁privile	-10643
▁ash	-10644
▁drive	-10645
▁иг	-10646
гент	-10647
рика	-10648
▁автор	-10649
▁делу	-10650
▁трое	-10651
▁нужен	-10652
▁fields	-10653
сот	-10654
жности	-10655
▁верно	-10656
place	-10657
▁подчер	-10658
▁новое	-10659
▁farther	-10660
▁бла	-10661
gend	-10662
▁дворе	-10663
▁практически	-10664
▁тиши	-10665
▁чрезвы	-10666
▁сложи	-10667
джи	-10668
END	-10669
▁appointed	-10670
ОЛ	-10671
▁NO	-10672
▁реда	-10673
▁hopes	-10674
▁каждом	-10675
▁Рабо	-10676
mes	-10677
телось	-10678
▁можем	-10679
▁попал	-10680
кол	-10681
▁dir	-10682
▁разгляды	-10683
ступать	-10684
▁completely	-10685
▁AR	-10686
▁applied	-10687
▁indign	-10688
▁Rob	-10689
▁soil	-10690
▁San	-10691
▁линии	-10692
▁Joe	-10693
▁приходится	-10694
▁buy	-10695
▁Fe	-10696
▁wet	-10697
стого	-10698
▁colored	-10699
verage	-10700
▁reported	-10701
▁Несмотря	-10702
"?	-10703
cco	-10704
char	-10705
▁bore	-10706
жается	-10707
▁Still	-10708
▁проме	-10709
▁познако	-10710
▁естественно	-10711
мии	-10712
▁улицы	-10713
минал	-10714
рени	-10715
▁splendid	-10716
▁gray	-10717
66;	-10718
нив	-10719
arted	-10720
▁лежит	-10721
▁Nap	-10722
▁хотите	-10723
низма	-10724
▁pages	-10725
▁впрочем	-10726
▁использовать	-10727
лота	-10728
▁priest	-10729
▁fifteen	-10730
oos	-10731
бели	-10732
▁intention	-10733
▁flour	-10734
▁Island	-10735
жур	-10736
aces	-10737
▁нашли	-10738
▁tongue	-10739
▁художе	-10740
▁hither	-10741
▁Lake	-10742
▁increase	-10743
▁колон	-10744
▁Же	-10745
▁payments	-10746
ns	-10747
▁спине	-10748
▁появились	-10749
So	-10750
ые	-10751
abeth	-10752
▁демон	-10753
▁сзади	-10754
▁crossed	-10755
▁лошадь	-10756
йд	-10757
▁ян	-10758
тической	-10759
созна	-10760
тк	-10761
▁рома	-10762
▁Again	-10763
▁played	-10764
▁Society	-10765
▁gathered	-10766
▁глубине	-10767
▁Land	-10768
▁Испо	-10769
▁absence	-10770
▁expense	-10771
шался	-10772
▁достой	-10773
▁ситуации	-10774
▁ласко	-10775
▁Prin	-10776
ой	-10777
▁profession	-10778
▁вино	-10779
▁LE	-10780
▁доли	-10781
шний	-10782
ims	-10783
▁experien	-10784
▁Й	-10785
/4	-10786
▁яс	-10787
стьян	-10788
▁Какой	-10789
▁гиган	-10790
▁text	-10791
▁вернулась	-10792
▁auch	-10793
▁рассчиты	-10794
▁cabin	-10795
▁ваш	-10796
▁follows	-10797
▁огра	-10798
гались	-10799
▁одинако	-10800
▁вов	-10801
while	-10802
▁отча	-10803
ilities	-10804
▁ладони	-10805
▁80	-10806
▁179	-10807
▁пыль	-10808
nat	-10809
▁rendered	-10810
aj	-10811
▁успела	-10812
ustomed	-10813
ссажи	-10814
▁whenever	-10815
▁тишина	-10816
▁люблю	-10817
▁лиц	-10818
▁----	-10819
▁приятно	-10820
aid	-10821
▁stead	-10822
▁volume	-10823
RS	-10824
▁tant	-10825
▁имели	-10826
▁rapidly	-10827
born	-10828
евна	-10829
▁зао	-10830
▁правду	-10831
щика	-10832
▁визи	-10833
▁разде	-10834
жена	-10835
▁двена	-10836
▁concept	-10837
▁начинает	-10838
▁запро	-10839
onscious	-10840
UM	-10841
жих	-10842
▁fool	-10843
▁еврей	-10844
▁immense	-10845
▁жену	-10846
▁First	-10847
▁книгу	-10848
▁City	-10849
tis	-10850
▁сби	-10851
▁щи	-10852
▁safety	-10853
▁местах	-10854
воро	-10855
▁вось	-10856
enes	-10857
ungen	-10858
▁рождения	-10859
▁2-	-10860
▁пет	-10861
▁потребо	-10862
▁paragraphs	-10863
▁recomm	-10864
▁informed	-10865
agement	-10866
▁conven	-10867
довой	-10868
▁совме	-10869
ICE	-10870
▁mount	-10871
▁новую	-10872
пада	-10873
▁Black	-10874
▁роско	-10875
чом	-10876
urity	-10877
erk	-10878
▁дорогой	-10879
▁подумать	-10880
arly	-10881
rows	-10882
▁форм	-10883
▁Cr	-10884
▁воспоминания	-10885
▁грома	-10886
acon	-10887
▁уга	-10888
▁touched	-10889
▁Jac	-10890
▁чужо	-10891
▁remaining	-10892
▁dozen	-10893
▁вку	-10894
IA	-10895
▁expenses	-10896
▁аппара	-10897
ъяс	-10898
▁cup	-10899
▁encore	-10900
▁христи	-10901
▁neighbor	-10902
▁notes	-10903
100	-10904
▁Дело	-10905
шат	-10906
orted	-10907
▁одни	-10908
▁переста	-10909
rep	-10910
▁словом	-10911
▁capable	-10912
▁воин	-10913
▁различных	-10914
▁shel	-10915
▁patri	-10916
▁событий	-10917
бых	-10918
сан	-10919
▁magnific	-10920
▁центре	-10921
▁отры	-10922
▁twice	-10923
▁shows	-10924
▁характери	-10925
▁coff	-10926
▁tent	-10927
▁силах	-10928
▁actual	-10929
isse	-10930
▁hal	-10931
▁радости	-10932
▁argument	-10933
▁enf	-10934
▁доволь	-10935
▁arrival	-10936
▁Тор	-10937
fulness	-10938
▁буквально	-10939
▁rob	-10940
▁sli	-10941
▁delay	-10942
▁последу	-10943
анна	-10944
чком	-10945
▁hurt	-10946
▁performed	-10947
▁всякого	-10948
▁generations	-10949
▁counten	-10950
▁fairly	-10951
▁Acc	-10952
вилась	-10953
▁moments	-10954
ленную	-10955
▁президен	-10956
гор	-10957
▁theory	-10958
тика	-10959
▁счастье	-10960
▁Генри	-10961
▁desper	-10962
▁fighting	-10963
▁благород	-10964
emed	-10965
▁dignity	-10966
▁compelled	-10967
зия	-10968
burg	-10969
▁ошиб	-10970
валился	-10971
imm	-10972
▁вел	-10973
твор	-10974
▁upper	-10975
▁truly	-10976
рилась	-10977
▁рыца	-10978
▁сообщил	-10979
win	-10980
жина	-10981
▁recoll	-10982
IONS	-10983
▁смени	-10984
▁лез	-10985
дилась	-10986
▁accompanied	-10987
▁results	-10988
▁остаться	-10989
chan	-10990
▁lit	-10991
▁busy	-10992
▁дополни	-10993
▁trem	-10994
▁самая	-10995
▁classes	-10996
▁окра	-10997
▁писатель	-10998
▁scattered	-10999
▁skill	-11000
▁отказы	-11001
IVE	-11002
лаз	-11003
▁listen	-11004
▁обратился	-11005
vant	-11006
▁pan	-11007
брасы	-11008
▁кровать	-11009
▁card	-11010
▁пля	-11011
▁partly	-11012
▁DAM	-11013
▁Those	-11014
▁nom	-11015
▁операции	-11016
▁Наде	-11017
▁член	-11018
arts	-11019
▁корабля	-11020
▁appreci	-11021
▁unfortun	-11022
43;	-11023
▁берег	-11024
▁nearer	-11025
▁development	-11026
Mr	-11027
▁ваго	-11028
ворачи	-11029
▁тен	-11030
▁туман	-11031
▁interested	-11032
ACH	-11033
▁церкви	-11034
▁walking	-11035
▁рассказать	-11036
▁Sav	-11037
▁Полу	-11038
soever	-11039
▁ход	-11040
▁Somet	-11041
▁Над	-11042
▁hide	-11043
ousin	-11044
▁problem	-11045
▁advice	-11046
▁contract	-11047
▁keen	-11048
ARL	-11049
▁para	-11050
vous	-11051
зости	-11052
▁sons	-11053
▁стену	-11054
▁броса	-11055
▁остановилась	-11056
ов	-11057
тль	-11058
ropri	-11059
▁нахму	-11060
▁главным	-11061
wa	-11062
▁аль	-11063
▁midst	-11064
▁предела	-11065
▁wounded	-11066
eling	-11067
▁desir	-11068
▁etait	-11069
▁labour	-11070
▁satisfaction	-11071
standing	-11072
▁absolutely	-11073
▁участие	-11074
▁guide	-11075
istered	-11076
▁возгла	-11077
нятно	-11078
▁disci	-11079
▁товарищ	-11080
▁successful	-11081
vin	-11082
шнего	-11083
▁кате	-11084
▁continue	-11085
чках	-11086
▁взор	-11087
▁наоборот	-11088
▁Наверное	-11089
▁нравится	-11090
▁store	-11091
▁resolved	-11092
▁упря	-11093
▁worst	-11094
▁соли	-11095
▁Германии	-11096
вят	-11097
▁lux	-11098
▁пожа	-11099
▁mour	-11100
ционной	-11101
▁бог	-11102
▁reasons	-11103
▁гло	-11104
▁erect	-11105
▁repro	-11106
onde	-11107
▁Ter	-11108
▁Camp	-11109
Да	-11110
aph	-11111
нях	-11112
ул	-11113
fall	-11114
▁Mal	-11115
▁Чего	-11116
▁Any	-11117
▁встала	-11118
lig	-11119
▁Mont	-11120
▁luck	-11121
▁сель	-11122
▁About	-11123
▁карман	-11124
overy	-11125
▁предназна	-11126
▁vor	-11127
▁Inde	-11128
▁кивнула	-11129
тянул	-11130
▁реги	-11131
▁Том	-11132
▁король	-11133
щины	-11134
▁пан	-11135
▁уши	-11136
▁knock	-11137
▁fierce	-11138
▁воспользо	-11139
нар	-11140
бым	-11141
▁LIM	-11142
▁сигаре	-11143
димому	-11144
▁подним	-11145
▁оку	-11146
▁мистера	-11147
сомненно	-11148
▁ам	-11149
inal	-11150
сала	-11151
▁rode	-11152
▁hoped	-11153
▁hate	-11154
▁скор	-11155
▁dont	-11156
▁горь	-11157
terday	-11158
▁звуки	-11159
ванных	-11160
тельств	-11161
▁holy	-11162
▁couple	-11163
▁оскор	-11164
ими	-11165
▁valu	-11166
▁доми	-11167
ченным	-11168
▁Куда	-11169
▁осозна	-11170
▁affair	-11171
▁--_	-11172
▁ля	-11173
▁бло	-11174
▁таин	-11175
▁закрыл	-11176
дились	-11177
▁shoot	-11178
▁Ав	-11179
5-	-11180
▁обоих	-11181
▁prosper	-11182
▁опы	-11183
▁highly	-11184
▁культуры	-11185
▁verd	-11186
ols	-11187
▁Разу	-11188
▁веж	-11189
▁вина	-11190
▁справи	-11191
ственными	-11192
▁выи	-11193
стря	-11194
▁война	-11195
▁Govern	-11196
▁liked	-11197
▁средств	-11198
▁pill	-11199
seless	-11200
▁Восто	-11201
▁gods	-11202
▁depth	-11203
блиоте	-11204
▁revolution	-11205
хли	-11206
▁ell	-11207
дию	-11208
лович	-11209
▁Мой	-11210
▁suffering	-11211
▁sont	-11212
▁осла	-11213
▁gained	-11214
▁lovely	-11215
▁сведения	-11216
▁neighbour	-11217
▁психи	-11218
▁colour	-11219
▁exception	-11220
▁Del	-11221
▁очи	-11222
ufact	-11223
▁сделали	-11224
▁школы	-11225
▁постель	-11226
▁containing	-11227
▁entity	-11228
cean	-11229
▁user	-11230
▁zou	-11231
▁acts	-11232
▁angry	-11233
▁community	-11234
ldom	-11235
▁orn	-11236
▁парт	-11237
▁carriage	-11238
▁INC	-11239
▁второго	-11240
▁насме	-11241
▁шагов	-11242
▁личности	-11243
алет	-11244
▁Che	-11245
▁drove	-11246
inction	-11247
▁consent	-11248
влений	-11249
▁local	-11250
▁можешь	-11251
▁Mur	-11252
▁pair	-11253
usement	-11254
▁контак	-11255
нек	-11256
aste	-11257
▁перес	-11258
алисти	-11259
▁районе	-11260
▁dressed	-11261
ulgar	-11262
▁message	-11263
▁derivative	-11264
▁moi	-11265
isher	-11266
вность	-11267
▁проби	-11268
ini	-11269
▁Тро	-11270
▁bond	-11271
▁одоб	-11272
▁watching	-11273
▁derived	-11274
▁иной	-11275
▁краса	-11276
▁сидит	-11277
дение	-11278
stone	-11279
▁дю	-11280
▁Лишь	-11281
министра	-11282
▁Fa	-11283
▁заговорил	-11284
▁possibly	-11285
INE	-11286
▁враже	-11287
▁мягко	-11288
▁excitement	-11289
▁столу	-11290
▁inside	-11291
▁Элиза	-11292
▁светло	-11293
ера	-11294
чко	-11295
▁indif	-11296
▁yours	-11297
▁flower	-11298
▁кно	-11299
▁прошеп	-11300
ILITY	-11301
agn	-11302
▁Hor	-11303
▁дали	-11304
▁цивили	-11305
питан	-11306
▁prompt	-11307
▁незамет	-11308
▁prospect	-11309
ket	-11310
ждали	-11311
mbling	-11312
чности	-11313
▁Austri	-11314
▁terror	-11315
65;	-11316
▁complying	-11317
▁революции	-11318
▁препо	-11319
▁форми	-11320
▁quality	-11321
▁языке	-11322
▁положения	-11323
▁River	-11324
▁calling	-11325
▁literary	-11326
▁Рай	-11327
▁значения	-11328
▁лета	-11329
▁infer	-11330
lection	-11331
▁Jean	-11332
▁intelligence	-11333
фы	-11334
▁Виктор	-11335
▁будешь	-11336
▁прошла	-11337
▁diam	-11338
▁falling	-11339
▁During	-11340
▁оказывается	-11341
тич	-11342
otton	-11343
▁относится	-11344
▁продолжала	-11345
▁legs	-11346
▁surv	-11347
нулось	-11348
▁onder	-11349
idity	-11350
▁suspic	-11351
▁профессор	-11352
▁соеди	-11353
▁presently	-11354
▁истреби	-11355
кает	-11356
utive	-11357
▁усмехнулся	-11358
▁Mus	-11359
▁приве	-11360
ступили	-11361
GREE	-11362
▁mistress	-11363
▁самостоя	-11364
гель	-11365
▁obv	-11366
пало	-11367
▁prohib	-11368
▁Fair	-11369
ится	-11370
▁Сов	-11371
▁бит	-11372
▁дверью	-11373
they	-11374
жают	-11375
▁rad	-11376
▁еже	-11377
ванию	-11378
▁университ	-11379
▁hearing	-11380
▁русской	-11381
▁flight	-11382
▁позволи	-11383
стка	-11384
▁wicked	-11385
▁устраи	-11386
rog	-11387
▁улыбка	-11388
vis	-11389
▁партий	-11390
▁shock	-11391
▁ударил	-11392
▁каждым	-11393
▁удивля	-11394
▁знают	-11395
looking	-11396
▁praise	-11397
▁monarch	-11398
64;	-11399
слей	-11400
▁begun	-11401
38;	-11402
▁lieu	-11403
▁пригото	-11404
▁bodies	-11405
▁Шу	-11406
▁потерял	-11407
▁hurried	-11408
▁взглянула	-11409
▁спло	-11410
▁learning	-11411
▁empty	-11412
емая	-11413
▁открыла	-11414
▁уса	-11415
▁прино	-11416
▁og	-11417
▁моем	-11418
▁стоило	-11419
▁хозяин	-11420
▁pp	-11421
ился	-11422
▁Вся	-11423
▁redistrib	-11424
▁bought	-11425
▁services	-11426
рительно	-11427
▁писать	-11428
▁meat	-11429
▁negro	-11430
ваны	-11431
▁apply	-11432
▁chose	-11433
▁награ	-11434
▁Игорь	-11435
▁слуша	-11436
▁зажи	-11437
ailable	-11438
▁двадцати	-11439
▁replacement	-11440
▁Мистер	-11441
▁женой	-11442
▁LI	-11443
▁Ham	-11444
▁инжен	-11445
▁содержит	-11446
оны	-11447
щихся	-11448
▁whispered	-11449
▁accordance	-11450
▁телом	-11451
▁deeply	-11452
63;	-11453
▁Ce	-11454
▁невольно	-11455
праши	-11456
▁suit	-11457
▁полю	-11458
▁прозра	-11459
▁corrupt	-11460
▁patient	-11461
▁Кру	-11462
▁читать	-11463
▁forb	-11464
▁больно	-11465
▁задумчиво	-11466
комен	-11467
▁авгу	-11468
▁agent	-11469
ache	-11470
▁subm	-11471
▁отде	-11472
▁конф	-11473
▁подходя	-11474
ferences	-11475
▁королев	-11476
щности	-11477
▁основе	-11478
женным	-11479
шель	-11480
▁Mat	-11481
▁Mais	-11482
▁remind	-11483
▁retreat	-11484
▁заранее	-11485
ёл	-11486
▁brain	-11487
▁пробу	-11488
▁gather	-11489
▁AGREE	-11490
▁пишет	-11491
ленного	-11492
▁stern	-11493
▁добавил	-11494
▁connection	-11495
▁increasing	-11496
leep	-11497
▁lifted	-11498
▁удастся	-11499
дец	-11500
▁wore	-11501
▁thoroughly	-11502
IRE	-11503
▁Pet	-11504
oked	-11505
ненный	-11506
▁ква	-11507
▁инте	-11508
▁DAMAG	-11509
▁putting	-11510
▁Бил	-11511
more	-11512
тков	-11513
▁замы	-11514
▁непло	-11515
▁разрабо	-11516
▁LIMITED	-11517
ец	-11518
▁final	-11519
▁информации	-11520
▁April	-11521
▁имела	-11522
▁дерева	-11523
▁Больше	-11524
BERT	-11525
▁индивиду	-11526
▁recommend	-11527
uv	-11528
ught	-11529
ждается	-11530
енький	-11531
inity	-11532
▁нужна	-11533
▁donate	-11534
▁берега	-11535
▁предлага	-11536
▁лошадей	-11537
asant	-11538
▁хала	-11539
▁Mass	-11540
льные	-11541
мал	-11542
▁teach	-11543
▁долларов	-11544
iture	-11545
▁causes	-11546
▁Ven	-11547
ждений	-11548
дея	-11549
anch	-11550
▁Bible	-11551
▁предприя	-11552
▁bearing	-11553
как	-11554
▁nav	-11555
▁евро	-11556
▁manifest	-11557
▁черный	-11558
▁assured	-11559
▁permanent	-11560
po	-11561
бый	-11562
▁нашем	-11563
откры	-11564
▁пулем	-11565
▁убить	-11566
▁App	-11567
▁фер	-11568
▁частью	-11569
▁Эд	-11570
▁excited	-11571
▁delicate	-11572
▁lat	-11573
▁indul	-11574
▁choice	-11575
▁careful	-11576
▁яко	-11577
▁concerned	-11578
▁receipt	-11579
87	-11580
▁днев	-11581
▁bord	-11582
▁sheep	-11583
▁utterly	-11584
▁Elizabeth	-11585
мс	-11586
ваем	-11587
чились	-11588
▁level	-11589
шной	-11590
▁Carolina	-11591
▁оставить	-11592
вные	-11593
ющейся	-11594
▁towns	-11595
▁Doctor	-11596
▁мнению	-11597
▁пога	-11598
▁moving	-11599
▁комплек	-11600
▁base	-11601
▁привез	-11602
▁Besides	-11603
▁haven	-11604
▁пришло	-11605
▁huge	-11606
▁вход	-11607
▁burning	-11608
▁необходимости	-11609
▁подобно	-11610
cribe	-11611
чений	-11612
▁разбира	-11613
▁hier	-11614
ader	-11615
▁formats	-11616
▁больших	-11617
▁сказали	-11618
▁Pers	-11619
▁вле	-11620
вающий	-11621
ippi	-11622
▁dull	-11623
▁vessels	-11624
▁пещ	-11625
▁увидев	-11626
▁краю	-11627
▁число	-11628
▁преимуще	-11629
▁[2	-11630
erves	-11631
▁estate	-11632
▁Though	-11633
▁directed	-11634
IND	-11635
lessly	-11636
▁отправля	-11637
зву	-11638
▁type	-11639
▁ап	-11640
чины	-11641
▁пак	-11642
▁зеле	-11643
▁хотели	-11644
▁project	-11645
▁кля	-11646
юза	-11647
писы	-11648
▁artist	-11649
▁заставил	-11650
iger	-11651
▁unable	-11652
ogen	-11653
▁profit	-11654
▁ребенок	-11655
As	-11656
▁наг	-11657
▁Most	-11658
вшееся	-11659
нией	-11660
нному	-11661
▁крик	-11662
ял	-11663
▁Оль	-11664
ente	-11665
▁нарко	-11666
▁divided	-11667
▁первом	-11668
▁domin	-11669
▁вздохнула	-11670
▁последова	-11671
▁неп	-11672
▁teeth	-11673
▁ничем	-11674
собенно	-11675
▁surrounded	-11676
Al	-11677
▁auss	-11678
▁features	-11679
ора	-11680
▁gla	-11681
стки	-11682
▁foo	-11683
▁library	-11684
▁Бога	-11685
▁downlo	-11686
▁Vict	-11687
▁Among	-11688
▁ребята	-11689
▁milk	-11690
▁положении	-11691
ava	-11692
▁Франции	-11693
няться	-11694
adel	-11695
▁provision	-11696
▁needs	-11697
сками	-11698
▁Воро	-11699
▁strict	-11700
▁шпи	-11701
oston	-11702
▁многое	-11703
▁Благо	-11704
eft	-11705
▁чувств	-11706
стаи	-11707
часа	-11708
видимому	-11709
▁ступень	-11710
▁market	-11711
даго	-11712
▁радость	-11713
кинул	-11714
▁EBook	-11715
▁edition	-11716
▁conscience	-11717
ulse	-11718
▁join	-11719
▁герои	-11720
▁alter	-11721
▁опасности	-11722
▁Dou	-11723
циями	-11724
ющему	-11725
bted	-11726
▁допу	-11727
▁выбира	-11728
▁victory	-11729
изво	-11730
жентль	-11731
▁преодо	-11732
водя	-11733
▁compre	-11734
▁запер	-11735
ленными	-11736
▁сосе	-11737
udd	-11738
▁Ev	-11739
руют	-11740
▁arose	-11741
▁момента	-11742
▁contempt	-11743
кле	-11744
▁серебря	-11745
▁branches	-11746
▁большого	-11747
новение	-11748
▁скажет	-11749
▁daar	-11750
▁лихо	-11751
▁fought	-11752
▁seldom	-11753
▁despair	-11754
лец	-11755
пок	-11756
▁кресла	-11757
▁LA	-11758
▁Only	-11759
▁ваше	-11760
▁alarm	-11761
▁держать	-11762
▁wed	-11763
▁вошла	-11764
imp	-11765
чью	-11766
▁отверсти	-11767
бросил	-11768
ician	-11769
▁White	-11770
▁circle	-11771
▁bridge	-11772
▁Far	-11773
▁companions	-11774
▁блю	-11775
56	-11776
▁приме	-11777
▁necessarily	-11778
▁AL	-11779
appy	-11780
▁зала	-11781
▁пройти	-11782
женная	-11783
▁abund	-11784
▁существу	-11785
▁sufficiently	-11786
▁разоча	-11787
енную	-11788
чев	-11789
▁196	-11790
")	-11791
мся	-11792
мены	-11793
▁coat	-11794
▁accustomed	-11795
▁enorm	-11796
▁серьезно	-11797
▁примен	-11798
▁объятия	-11799
мости	-11800
▁fund	-11801
▁огня	-11802
▁собе	-11803
бности	-11804
▁друже	-11805
▁masters	-11806
Мо	-11807
ulated	-11808
▁ascend	-11809
▁напомни	-11810
eding	-11811
▁квартиру	-11812
▁prisoner	-11813
▁1:	-11814
▁maid	-11815
▁подно	-11816
▁faithful	-11817
▁opposition	-11818
▁Нор	-11819
ковых	-11820
▁Ang	-11821
ober	-11822
▁ast	-11823
▁поговорить	-11824
▁значительно	-11825
фика	-11826
▁aqu	-11827
eless	-11828
imony	-11829
▁han	-11830
▁духа	-11831
▁indic	-11832
▁заявил	-11833
rank	-11834
▁иду	-11835
▁Луи	-11836
▁территории	-11837
ьте	-11838
▁vision	-11839
▁показать	-11840
▁obtaining	-11841
▁Hol	-11842
▁Sep	-11843
▁element	-11844
▁worship	-11845
ishes	-11846
клад	-11847
▁факт	-11848
▁trial	-11849
▁последних	-11850
▁Кре	-11851
▁клад	-11852
▁recon	-11853
▁траге	-11854
▁хватало	-11855
▁reward	-11856
▁VI	-11857
▁governor	-11858
▁Pub	-11859
▁привя	-11860
▁экспери	-11861
71;	-11862
ares	-11863
▁сма	-11864
тором	-11865
▁listened	-11866
31	-11867
ende	-11868
▁дочери	-11869
,)	-11870
aire	-11871
▁сухо	-11872
▁религиоз	-11873
▁absurd	-11874
▁universal	-11875
▁сцене	-11876
▁гостей	-11877
▁Jane	-11878
▁друж	-11879
▁грубо	-11880
▁ceased	-11881
▁сестра	-11882
▁находились	-11883
▁Aunt	-11884
▁revol	-11885
дело	-11886
▁коп	-11887
▁аккура	-11888
▁фамили	-11889
▁Дума	-11890
▁вида	-11891
▁ков	-11892
▁бежать	-11893
▁destroyed	-11894
▁reference	-11895
erd	-11896
▁портре	-11897
▁продви	-11898
▁entrance	-11899
rated	-11900
льных	-11901
щенный	-11902
▁большинство	-11903
▁кот	-11904
▁Ly	-11905
▁Нем	-11906
oration	-11907
▁борьбы	-11908
amente	-11909
▁composed	-11910
▁dying	-11911
▁Роди	-11912
▁столо	-11913
▁одежду	-11914
▁raise	-11915
▁infant	-11916
▁quantity	-11917
▁снаря	-11918
iste	-11919
▁Мол	-11920
▁пал	-11921
▁хро	-11922
новения	-11923
▁brilliant	-11924
ционных	-11925
▁отказа	-11926
▁поднялась	-11927
▁ju	-11928
▁chosen	-11929
▁Come	-11930
▁удал	-11931
Ex	-11932
▁заты	-11933
▁неизбе	-11934
abb	-11935
▁avoid	-11936
▁noise	-11937
▁palace	-11938
▁evident	-11939
▁самоу	-11940
▁sex	-11941
жность	-11942
▁IND	-11943
▁stated	-11944
лика	-11945
▁моно	-11946
issippi	-11947
▁Интере	-11948
▁шар	-11949
▁сексу	-11950
▁Sla	-11951
▁бре	-11952
▁соро	-11953
▁Прежде	-11954
▁MA	-11955
▁odd	-11956
▁справедливо	-11957
▁sooner	-11958
▁пассажи	-11959
▁stick	-11960
▁Внезапно	-11961
emn	-11962
ялась	-11963
▁European	-11964
col	-11965
▁SH	-11966
▁ride	-11967
▁Emperor	-11968
пять	-11969
▁вдох	-11970
▁curios	-11971
inently	-11972
▁measures	-11973
делся	-11974
енному	-11975
ых	-11976
oph	-11977
руя	-11978
▁Авто	-11979
голо	-11980
▁instit	-11981
▁impress	-11982
▁mistake	-11983
хожу	-11984
▁violence	-11985
ological	-11986
▁вя	-11987
▁прошли	-11988
▁взгляда	-11989
▁grief	-11990
▁централь	-11991
▁вскочил	-11992
IAM	-11993
▁cam	-11994
▁Book	-11995
▁вспомина	-11996
▁старо	-11997
ointment	-11998
▁newsp	-11999
ension	-12000
rif	-12001
▁Marg	-12002
чиком	-12003
▁cerem	-12004
▁нужны	-12005
▁caval	-12006
▁tells	-12007
▁лежали	-12008
▁черно	-12009
inger	-12010
▁invent	-12011
▁Це	-12012
▁hence	-12013
нько	-12014
▁выглядел	-12015
▁smo	-12016
▁Обы	-12017
▁unex	-12018
хая	-12019
▁fame	-12020
▁аген	-12021
▁процесс	-12022
▁начальник	-12023
▁exha	-12024
▁waren	-12025
рать	-12026
after	-12027
liament	-12028
зация	-12029
▁сидень	-12030
воло	-12031
▁Алексей	-12032
▁gay	-12033
▁бата	-12034
▁остальных	-12035
▁вещей	-12036
▁дождь	-12037
▁jealous	-12038
IGHT	-12039
▁искусства	-12040
▁драго	-12041
▁articles	-12042
▁означает	-12043
▁Михай	-12044
▁службы	-12045
▁dish	-12046
жнее	-12047
▁ange	-12048
товой	-12049
▁приехал	-12050
▁convention	-12051
▁катего	-12052
▁баталь	-12053
▁gh	-12054
▁вошли	-12055
▁devoted	-12056
▁statement	-12057
▁представления	-12058
▁станции	-12059
▁deliber	-12060
cles	-12061
кость	-12062
▁замок	-12063
▁doctrine	-12064
▁Mississippi	-12065
▁Господи	-12066
▁Helen	-12067
▁convin	-12068
▁reports	-12069
таться	-12070
▁прошлом	-12071
▁lamp	-12072
▁methods	-12073
_-	-12074
▁Расс	-12075
▁довер	-12076
▁сторонам	-12077
▁опустил	-12078
!)	-12079
▁hang	-12080
▁hotel	-12081
▁Secretary	-12082
▁небольшо	-12083
ланд	-12084
▁gramm	-12085
▁овла	-12086
▁придет	-12087
▁подъез	-12088
▁применя	-12089
rag	-12090
▁осле	-12091
▁35	-12092
▁ook	-12093
▁наказа	-12094
▁оружия	-12095
yer	-12096
▁неле	-12097
▁countenance	-12098
irmed	-12099
▁погля	-12100
▁разма	-12101
▁Зи	-12102
днев	-12103
▁release	-12104
▁основном	-12105
▁пойти	-12106
▁разор	-12107
ющегося	-12108
▁умень	-12109
жье	-12110
▁Лан	-12111
▁earlier	-12112
▁figures	-12113
щены	-12114
▁region	-12115
▁назвать	-12116
▁охран	-12117
▁Southern	-12118
▁Little	-12119
гр	-12120
▁повез	-12121
▁изя	-12122
▁реша	-12123
▁настой	-12124
сные	-12125
стыми	-12126
▁сидеть	-12127
▁addressed	-12128
▁tomb	-12129
довали	-12130
▁корпуса	-12131
▁families	-12132
▁ке	-12133
▁ногах	-12134
▁ult	-12135
ково	-12136
▁животных	-12137
▁defence	-12138
ds	-12139
▁impat	-12140
▁chiefly	-12141
▁крестьян	-12142
ници	-12143
inese	-12144
бина	-12145
▁Harry	-12146
чам	-12147
▁becoming	-12148
ятся	-12149
rand	-12150
▁preserve	-12151
▁сю	-12152
▁obey	-12153
▁ruin	-12154
▁escaped	-12155
▁kindly	-12156
▁mankind	-12157
▁последней	-12158
▁Саша	-12159
▁аэрод	-12160
нутри	-12161
мами	-12162
▁sang	-12163
▁понятия	-12164
▁международ	-12165
йн	-12166
▁row	-12167
▁closely	-12168
▁Боже	-12169
▁represented	-12170
вода	-12171
ложила	-12172
▁commercial	-12173
▁abroad	-12174
▁приобре	-12175
ittee	-12176
▁manners	-12177
▁commission	-12178
▁stones	-12179
▁throne	-12180
▁191	-12181
▁Иль	-12182
▁квартире	-12183
▁Francis	-12184
▁friendly	-12185
▁судьба	-12186
'.	-12187
▁вкус	-12188
▁здра	-12189
▁оперы	-12190
▁коня	-12191
мощ	-12192
76	-12193
esp	-12194
ьер	-12195
▁guns	-12196
▁голосе	-12197
▁играть	-12198
▁ahead	-12199
▁devil	-12200
▁специально	-12201
▁библиоте	-12202
▁вопросов	-12203
anz	-12204
▁нрав	-12205
▁вашей	-12206
▁growth	-12207
▁первое	-12208
▁провер	-12209
уди	-12210
▁habits	-12211
▁стул	-12212
▁bos	-12213
▁снег	-12214
▁Part	-12215
▁двой	-12216
▁звон	-12217
▁выслу	-12218
iana	-12219
▁хри	-12220
▁welcome	-12221
▁замуж	-12222
▁заметно	-12223
хим	-12224
▁buried	-12225
▁Tre	-12226
▁Гро	-12227
▁гигант	-12228
▁понятно	-12229
85	-12230
▁кровью	-12231
aron	-12232
▁япон	-12233
дне	-12234
▁Ск	-12235
▁kun	-12236
▁rooms	-12237
▁ils	-12238
▁kit	-12239
certain	-12240
▁правило	-12241
▁Лей	-12242
▁reaching	-12243
жат	-12244
▁stars	-12245
▁белые	-12246
гают	-12247
▁самую	-12248
▁reasonable	-12249
ую	-12250
FOR	-12251
▁Tem	-12252
▁старого	-12253
▁purposes	-12254
▁__	-12255
зоб	-12256
udes	-12257
▁арома	-12258
▁симпа	-12259
▁иску	-12260
▁психологи	-12261
▁носи	-12262
gie	-12263
▁Under	-12264
▁Rog	-12265
▁tale	-12266
▁увидели	-12267
ilst	-12268
▁tur	-12269
▁вен	-12270
логии	-12271
▁police	-12272
▁консер	-12273
who	-12274
▁enl	-12275
▁remove	-12276
▁admiration	-12277
37;	-12278
▁вслу	-12279
▁сумел	-12280
▁самолета	-12281
▁богат	-12282
▁ere	-12283
xim	-12284
▁удовольствие	-12285
▁sounds	-12286
▁bla	-12287
▁исте	-12288
▁schools	-12289
▁впло	-12290
аги	-12291
▁робо	-12292
▁подробно	-12293
▁воскликнул	-12294
▁актив	-12295
hetic	-12296
▁continu	-12297
▁работает	-12298
iend	-12299
▁foolish	-12300
▁Inst	-12301
▁Park	-12302
▁Сталин	-12303
▁bringing	-12304
▁whatsoever	-12305
▁Pom	-12306
▁кресле	-12307
сюду	-12308
▁русский	-12309
iable	-12310
вающие	-12311
▁войне	-12312
▁constantly	-12313
▁practically	-12314
▁Вас	-12315
ICH	-12316
цкий	-12317
десяти	-12318
▁obsc	-12319
▁сержа	-12320
there	-12321
▁gross	-12322
▁дис	-12323
▁joint	-12324
60;	-12325
aved	-12326
▁вож	-12327
▁inches	-12328
▁присоеди	-12329
йки	-12330
▁Много	-12331
▁Тай	-12332
▁высокий	-12333
митри	-12334
cember	-12335
▁бесконе	-12336
▁нашим	-12337
▁удали	-12338
▁valuable	-12339
tel	-12340
▁GE	-12341
▁рю	-12342
▁teleg	-12343
▁предус	-12344
▁пох	-12345
▁оцен	-12346
▁мая	-12347
orter	-12348
▁распла	-12349
ваюсь	-12350
▁skin	-12351
Го	-12352
▁прожи	-12353
▁Москву	-12354
ashed	-12355
▁Элизабет	-12356
енью	-12357
▁Эр	-12358
▁schol	-12359
▁далее	-12360
▁Первый	-12361
via	-12362
▁образу	-12363
▁singing	-12364
▁насчет	-12365
отно	-12366
галась	-12367
▁doors	-12368
дре	-12369
▁кафе	-12370
▁нелов	-12371
▁раду	-12372
▁отношению	-12373
bly	-12374
new	-12375
▁Тебе	-12376
▁съе	-12377
▁souls	-12378
▁отличие	-12379
▁Bill	-12380
▁компози	-12381
ниями	-12382
▁донес	-12383
▁tort	-12384
ounding	-12385
Ar	-12386
ila	-12387
▁propos	-12388
▁showing	-12389
лив	-12390
▁Анто	-12391
▁domestic	-12392
aturday	-12393
▁70	-12394
▁Are	-12395
▁Mir	-12396
ocks	-12397
▁отоз	-12398
▁Hon	-12399
вни	-12400
делы	-12401
бю	-12402
щание	-12403
▁Like	-12404
▁Уви	-12405
тался	-12406
mother	-12407
▁русских	-12408
▁жут	-12409
▁район	-12410
36;	-12411
зах	-12412
▁понадоби	-12413
oln	-12414
хажи	-12415
▁Какая	-12416
▁пробор	-12417
▁smiling	-12418
▁пятьдесят	-12419
▁действовать	-12420
▁bay	-12421
peare	-12422
▁oder	-12423
▁tum	-12424
▁будущее	-12425
▁приказа	-12426
▁здания	-12427
▁doubtless	-12428
ым	-12429
▁smooth	-12430
▁negroes	-12431
▁высокой	-12432
жном	-12433
cont	-12434
tense	-12435
▁огромный	-12436
▁неот	-12437
_--	-12438
war	-12439
обла	-12440
пута	-12441
▁губ	-12442
▁Джек	-12443
▁спал	-12444
вот	-12445
▁вытащил	-12446
▁Стран	-12447
62;	-12448
▁nose	-12449
▁воли	-12450
sm	-12451
кур	-12452
▁Saint	-12453
▁arrest	-12454
стинк	-12455
▁Leon	-12456
▁affect	-12457
▁привлека	-12458
▁acquaintance	-12459
дование	-12460
gia	-12461
йской	-12462
▁бесконечно	-12463
_),	-12464
▁крово	-12465
▁длинные	-12466
▁Het	-12467
▁Подо	-12468
▁Another	-12469
▁attended	-12470
▁Ze	-12471
ourage	-12472
▁details	-12473
нусь	-12474
▁gem	-12475
▁Иванович	-12476
▁recognized	-12477
ruary	-12478
▁anc	-12479
▁Britain	-12480
▁visited	-12481
▁зай	-12482
▁чемо	-12483
▁Boston	-12484
▁осуществля	-12485
▁anal	-12486
лого	-12487
▁blank	-12488
▁следы	-12489
▁понимала	-12490
▁Доро	-12491
▁ужаса	-12492
▁думает	-12493
рованный	-12494
▁wo	-12495
вного	-12496
▁опере	-12497
21	-12498
▁boil	-12499
▁смех	-12500
▁gently	-12501
▁полный	-12502
acles	-12503
сой	-12504
▁союз	-12505
▁черной	-12506
cts	-12507
▁Mel	-12508
illes	-12509
дную	-12510
▁desert	-12511
▁отвечал	-12512
▁боже	-12513
▁кали	-12514
▁Пожал	-12515
▁отдела	-12516
▁everywhere	-12517
тр	-12518
▁demon	-12519
▁молодых	-12520
исто	-12521
▁entit	-12522
▁приба	-12523
▁Шек	-12524
0,000	-12525
▁ваши	-12526
нными	-12527
▁кора	-12528
емое	-12529
мели	-12530
▁провед	-12531
тического	-12532
▁ехать	-12533
▁подвод	-12534
▁yesterday	-12535
ьми	-12536
▁сго	-12537
ливый	-12538
▁счастью	-12539
asions	-12540
▁христиан	-12541
▁следующее	-12542
▁household	-12543
вик	-12544
▁Thou	-12545
▁punishment	-12546
▁noun	-12547
▁Add	-12548
▁sell	-12549
▁mood	-12550
▁выпря	-12551
▁заставить	-12552
▁cell	-12553
меялась	-12554
▁собесед	-12555
▁glorious	-12556
▁плотно	-12557
▁сочув	-12558
oused	-12559
▁amaz	-12560
▁lang	-12561
▁effects	-12562
▁фар	-12563
▁profess	-12564
▁opinions	-12565
ЕЛ	-12566
вель	-12567
▁Сэм	-12568
▁смысла	-12569
long	-12570
▁energy	-12571
▁молчали	-12572
▁представляет	-12573
▁cig	-12574
ились	-12575
▁knees	-12576
24	-12577
ki	-12578
▁края	-12579
tember	-12580
▁губами	-12581
len	-12582
▁Время	-12583
мить	-12584
▁оказаться	-12585
").	-12586
▁янва	-12587
▁humanity	-12588
▁последнего	-12589
▁Ye	-12590
мыми	-12591
▁manufact	-12592
▁захло	-12593
▁ство	-12594
предел	-12595
▁bei	-12596
▁заслу	-12597
▁возраста	-12598
▁Нео	-12599
rough	-12600
▁SU	-12601
рода	-12602
▁джентль	-12603
▁jam	-12604
ENCE	-12605
▁range	-12606
жней	-12607
▁FRAN	-12608
▁пожалуйста	-12609
▁лиф	-12610
▁baby	-12611
▁kinds	-12612
▁носом	-12613
▁цы	-12614
▁уве	-12615
▁Дом	-12616
▁pond	-12617
▁awful	-12618
▁звезд	-12619
▁кладби	-12620
▁разговора	-12621
▁поспешно	-12622
▁shop	-12623
▁сопротив	-12624
▁науки	-12625
▁fellows	-12626
▁субъек	-12627
▁sending	-12628
▁copied	-12629
▁conclusion	-12630
▁[1]	-12631
▁Дер	-12632
▁удивился	-12633
agne	-12634
▁боевой	-12635
▁ворота	-12636
▁reality	-12637
▁everybody	-12638
On	-12639
inking	-12640
▁огнем	-12641
▁decision	-12642
▁прогре	-12643
▁ends	-12644
▁playing	-12645
sey	-12646
ses	-12647
▁Der	-12648
▁аэро	-12649
▁лейтенант	-12650
QU	-12651
ande	-12652
бежала	-12653
▁Having	-12654
нели	-12655
▁cord	-12656
▁Англии	-12657
▁название	-12658
▁настоящий	-12659
ждением	-12660
▁thinks	-12661
aming	-12662
▁jump	-12663
▁fleet	-12664
▁ух	-12665
▁Bla	-12666
▁горло	-12667
▁strike	-12668
▁мнение	-12669
▁холодно	-12670
▁nodd	-12671
verted	-12672
▁Откуда	-12673
▁column	-12674
▁mental	-12675
▁посреди	-12676
▁propriet	-12677
ped	-12678
▁Поли	-12679
▁забыть	-12680
▁Был	-12681
▁распростра	-12682
▁rust	-12683
▁коридор	-12684
AU	-12685
lies	-12686
▁appropri	-12687
▁палу	-12688
ourable	-12689
ждую	-12690
чее	-12691
первых	-12692
▁атмос	-12693
▁tres	-12694
▁violent	-12695
скали	-12696
▁удовольствием	-12697
▁Did	-12698
▁плы	-12699
брать	-12700
шении	-12701
▁ages	-12702
LI	-12703
жел	-12704
▁рису	-12705
▁казался	-12706
мать	-12707
ichel	-12708
ona	-12709
рно	-12710
▁словам	-12711
▁striking	-12712
▁кожи	-12713
▁муже	-12714
▁mercy	-12715
▁verse	-12716
▁проблема	-12717
bben	-12718
▁aber	-12719
▁Univers	-12720
ili	-12721
force	-12722
▁дорога	-12723
▁площади	-12724
▁distinction	-12725
▁unp	-12726
▁хлеб	-12727
▁погла	-12728
ченного	-12729
▁ot	-12730
▁ridic	-12731
▁Philip	-12732
▁провести	-12733
цеп	-12734
▁моему	-12735
▁probable	-12736
▁повернул	-12737
▁сокра	-12738
▁Nothing	-12739
нюдь	-12740
▁provin	-12741
ялись	-12742
рда	-12743
ecture	-12744
▁arranged	-12745
77	-12746
▁waste	-12747
▁стекла	-12748
itan	-12749
▁ease	-12750
▁сожалению	-12751
Good	-12752
▁бомб	-12753
▁ожидал	-12754
▁mystery	-12755
iti	-12756
▁гроз	-12757
рай	-12758
▁grie	-12759
▁Major	-12760
гри	-12761
▁Cath	-12762
доволь	-12763
▁doesn	-12764
▁entre	-12765
кл	-12766
▁ноя	-12767
сим	-12768
▁Rus	-12769
▁sigh	-12770
▁снима	-12771
▁Chinese	-12772
▁Фло	-12773
хотвор	-12774
Of	-12775
▁restra	-12776
▁полковник	-12777
▁pulled	-12778
▁полном	-12779
гнув	-12780
▁infinite	-12781
▁och	-12782
▁Само	-12783
ration	-12784
▁читал	-12785
▁178	-12786
▁vir	-12787
▁вру	-12788
▁главе	-12789
▁indust	-12790
▁литератур	-12791
▁рассказывал	-12792
тится	-12793
▁ideal	-12794
▁сед	-12795
▁желе	-12796
▁consult	-12797
▁hundreds	-12798
▁seated	-12799
▁русского	-12800
▁properly	-12801
34	-12802
▁пьесы	-12803
▁болезни	-12804
щенные	-12805
▁войну	-12806
▁Владимир	-12807
▁instantly	-12808
▁маленькой	-12809
▁nerv	-12810
▁Рядом	-12811
▁plenty	-12812
▁поу	-12813
тальян	-12814
35;	-12815
▁поход	-12816
▁Russian	-12817
бою	-12818
жом	-12819
▁кухню	-12820
прос	-12821
вия	-12822
▁большей	-12823
▁обез	-12824
▁render	-12825
▁шаги	-12826
▁banks	-12827
▁Margaret	-12828
▁Некоторые	-12829
▁заинтересо	-12830
▁Dist	-12831
▁существа	-12832
зок	-12833
нении	-12834
▁любя	-12835
atively	-12836
▁nin	-12837
▁снаб	-12838
▁contempl	-12839
чков	-12840
▁молчание	-12841
▁kitchen	-12842
▁Мей	-12843
▁вечно	-12844
Be	-12845
▁взрос	-12846
pless	-12847
▁Cast	-12848
▁dreadful	-12849
▁Лондо	-12850
▁спасти	-12851
АЛ	-12852
▁Хозя	-12853
▁Freder	-12854
▁collect	-12855
ческому	-12856
▁WILLIAM	-12857
▁пальцев	-12858
▁194	-12859
▁reflect	-12860
▁Исто	-12861
▁смотри	-12862
▁настоящее	-12863
▁предполага	-12864
▁disappeared	-12865
▁deck	-12866
▁това	-12867
наве	-12868
▁согласно	-12869
▁выдви	-12870
▁exists	-12871
▁наверх	-12872
Who	-12873
▁Norm	-12874
▁академи	-12875
▁drop	-12876
▁жидко	-12877
▁уверенно	-12878
▁Эл	-12879
▁Fre	-12880
▁Lew	-12881
▁раска	-12882
▁wishes	-12883
▁станов	-12884
▁останется	-12885
En	-12886
▁устал	-12887
ilty	-12888
▁хозяина	-12889
▁5,	-12890
met	-12891
wick	-12892
вера	-12893
▁Bay	-12894
▁вар	-12895
▁космо	-12896
ijke	-12897
▁difficulties	-12898
▁Ac	-12899
▁попробо	-12900
▁сно	-12901
▁ведет	-12902
▁обозна	-12903
▁отлично	-12904
▁способен	-12905
▁насторо	-12906
father	-12907
▁боялся	-12908
▁компьют	-12909
рованной	-12910
▁прошлого	-12911
▁delivered	-12912
▁Den	-12913
думал	-12914
▁демокра	-12915
▁происходя	-12916
inate	-12917
▁благополу	-12918
▁184	-12919
▁рам	-12920
▁source	-12921
his	-12922
opy	-12923
▁laughing	-12924
▁привлек	-12925
itious	-12926
зилась	-12927
▁грузо	-12928
▁abolition	-12929
ходом	-12930
▁сдви	-12931
▁grasp	-12932
▁хватит	-12933
послед	-12934
▁перене	-12935
▁коммуни	-12936
▁destruction	-12937
porary	-12938
▁офицер	-12939
▁Похоже	-12940
▁changes	-12941
asted	-12942
▁cel	-12943
▁PG	-12944
▁заби	-12945
▁меж	-12946
utenant	-12947
▁Особенно	-12948
▁предложение	-12949
литься	-12950
▁куста	-12951
▁furnished	-12952
▁быст	-12953
▁cha	-12954
ствий	-12955
▁газеты	-12956
▁действие	-12957
12.	-12958
▁kle	-12959
▁PR	-12960
▁удара	-12961
▁kindness	-12962
▁сигнал	-12963
▁supper	-12964
▁наблюдал	-12965
▁опасность	-12966
▁гнев	-12967
тном	-12968
▁окре	-12969
▁Поль	-12970
▁напад	-12971
▁convey	-12972
▁lack	-12973
▁research	-12974
др	-12975
▁China	-12976
▁alike	-12977
▁театра	-12978
▁attitude	-12979
▁Весь	-12980
▁кармана	-12981
▁успоко	-12982
Со	-12983
▁exch	-12984
▁сотни	-12985
▁ушла	-12986
▁aspect	-12987
шенные	-12988
▁леген	-12989
▁умо	-12990
▁abst	-12991
▁влюб	-12992
▁папа	-12993
▁western	-12994
▁Кли	-12995
idel	-12996
ствующих	-12997
▁игры	-12998
▁женщиной	-12999
▁мета	-13000
▁крайне	-13001
esse	-13002
дитель	-13003
▁lest	-13004
▁слушал	-13005
▁younger	-13006
▁тему	-13007
леть	-13008
▁Long	-13009
▁Шекспи	-13010
рованных	-13011
▁состоит	-13012
▁contained	-13013
▁старин	-13014
▁Flore	-13015
▁weary	-13016
▁кусок	-13017
▁рит	-13018
▁Fore	-13019
▁magazine	-13020
зова	-13021
▁chamber	-13022
▁солдаты	-13023
▁calls	-13024
▁пить	-13025
▁Green	-13026
▁самим	-13027
▁Петербур	-13028
uman	-13029
▁Son	-13030
▁career	-13031
▁начать	-13032
▁nd	-13033
▁Фер	-13034
▁аккуратно	-13035
нти	-13036
▁emer	-13037
incoln	-13038
▁брови	-13039
▁solicit	-13040
▁instrument	-13041
▁tut	-13042
канчи	-13043
▁граф	-13044
▁неба	-13045
▁привык	-13046
▁считает	-13047
OUR	-13048
▁кир	-13049
▁режисс	-13050
▁Жу	-13051
▁срок	-13052
▁castle	-13053
еремо	-13054
▁Марк	-13055
ванной	-13056
▁Коман	-13057
▁наружу	-13058
▁Victor	-13059
мия	-13060
▁жан	-13061
▁слез	-13062
▁молодого	-13063
▁1941	-13064
▁discussion	-13065
ложения	-13066
▁движением	-13067
▁дья	-13068
▁пыталась	-13069
▁sous	-13070
▁comment	-13071
нской	-13072
▁arise	-13073
▁Ep	-13074
▁Бен	-13075
▁белый	-13076
ленности	-13077
▁впи	-13078
▁Мара	-13079
▁дово	-13080
говорила	-13081
▁знаем	-13082
▁atm	-13083
▁очер	-13084
▁pronoun	-13085
▁hebben	-13086
▁чрезвычайно	-13087
zed	-13088
▁Ha	-13089
▁первая	-13090
▁вспомнить	-13091
▁veget	-13092
зне	-13093
▁Cam	-13094
▁Elle	-13095
Or	-13096
▁неф	-13097
▁уровне	-13098
▁exempt	-13099
▁великолеп	-13100
рас	-13101
▁прозву	-13102
▁extended	-13103
▁любез	-13104
▁пространство	-13105
▁Един	-13106
▁sovereign	-13107
▁nobody	-13108
▁спуска	-13109
▁construction	-13110
▁Boy	-13111
▁школе	-13112
▁Pope	-13113
▁нар	-13114
▁сверх	-13115
▁рассла	-13116
ENSE	-13117
▁Зато	-13118
▁settle	-13119
ковые	-13120
▁отряд	-13121
вока	-13122
▁Emp	-13123
▁Сы	-13124
риса	-13125
▁brothers	-13126
▁общего	-13127
▁Кстати	-13128
ковы	-13129
2)	-13130
▁vic	-13131
▁innocent	-13132
▁High	-13133
вная	-13134
щиеся	-13135
▁THAT	-13136
asm	-13137
ola	-13138
▁целом	-13139
▁senate	-13140
▁вски	-13141
▁staff	-13142
▁членов	-13143
▁казалась	-13144
▁tran	-13145
▁qualities	-13146
▁желая	-13147
▁od	-13148
▁cease	-13149
ковым	-13150
▁dag	-13151
▁порт	-13152
▁заро	-13153
▁essential	-13154
▁уша	-13155
▁живой	-13156
▁sprang	-13157
арди	-13158
▁Мэри	-13159
▁оставался	-13160
▁употре	-13161
▁model	-13162
urate	-13163
▁уставился	-13164
▁lover	-13165
▁creation	-13166
ulp	-13167
bell	-13168
▁Высо	-13169
▁исполни	-13170
▁October	-13171
▁county	-13172
▁нанес	-13173
▁pressed	-13174
▁рта	-13175
▁lone	-13176
▁likewise	-13177
▁celebrated	-13178
four	-13179
▁жила	-13180
▁queen	-13181
▁production	-13182
▁учре	-13183
▁addresses	-13184
▁рим	-13185
▁female	-13186
▁lately	-13187
▁заметить	-13188
▁execution	-13189
▁Cent	-13190
▁твоя	-13191
▁expend	-13192
▁несча	-13193
▁дверей	-13194
istration	-13195
▁счастья	-13196
▁Например	-13197
▁бедра	-13198
▁помог	-13199
▁intense	-13200
▁Дмитри	-13201
▁огляды	-13202
23,	-13203
▁Пожалуй	-13204
THER	-13205
▁ended	-13206
▁сдержи	-13207
етесь	-13208
▁costs	-13209
▁wound	-13210
▁Have	-13211
Ро	-13212
▁пру	-13213
▁Эль	-13214
▁индей	-13215
▁38	-13216
▁зависимо	-13217
сного	-13218
▁Saturday	-13219
▁Бри	-13220
▁стер	-13221
▁населения	-13222
▁rum	-13223
▁scient	-13224
,[	-13225
▁noch	-13226
▁asking	-13227
oring	-13228
▁prejud	-13229
▁правительства	-13230
▁пристально	-13231
▁sem	-13232
▁millions	-13233
▁critical	-13234
oral	-13235
allen	-13236
▁Gold	-13237
▁развитие	-13238
usive	-13239
Le	-13240
▁Петр	-13241
▁della	-13242
▁удержи	-13243
▁suggestion	-13244
▁Пор	-13245
▁поворо	-13246
▁графи	-13247
▁werden	-13248
▁goods	-13249
▁порой	-13250
▁Дверь	-13251
▁языка	-13252
▁изменения	-13253
ieux	-13254
кона	-13255
▁Dep	-13256
etch	-13257
▁Мир	-13258
▁cattle	-13259
▁отнюдь	-13260
▁Спасибо	-13261
▁frequent	-13262
▁палец	-13263
▁свадь	-13264
ommes	-13265
▁обеспечи	-13266
▁Once	-13267
ЕТ	-13268
▁Лени	-13269
▁Ната	-13270
▁сыгра	-13271
▁молчал	-13272
rat	-13273
чья	-13274
▁barbar	-13275
▁верить	-13276
▁выхода	-13277
Бо	-13278
▁председа	-13279
▁соответствии	-13280
▁issue	-13281
рыми	-13282
urance	-13283
▁Разумеется	-13284
▁embra	-13285
▁reduced	-13286
▁старика	-13287
▁Ам	-13288
▁emotion	-13289
▁пятнадцать	-13290
сып	-13291
▁vot	-13292
▁пен	-13293
▁журнали	-13294
pass	-13295
▁мною	-13296
Where	-13297
▁temple	-13298
▁независимо	-13299
▁SE	-13300
liest	-13301
▁precious	-13302
▁условия	-13303
▁accomplished	-13304
▁масси	-13305
▁intim	-13306
▁надежды	-13307
гнать	-13308
▁ascertain	-13309
▁неизвестно	-13310
▁Кол	-13311
▁poem	-13312
▁подда	-13313
▁разбу	-13314
вленный	-13315
▁voices	-13316
▁September	-13317
Wh	-13318
бан	-13319
▁disposed	-13320
▁шеп	-13321
челове	-13322
▁муску	-13323
▁Петров	-13324
▁борьбе	-13325
▁FULL	-13326
▁прото	-13327
▁majority	-13328
▁arrangement	-13329
▁жду	-13330
▁Holy	-13331
▁инстинк	-13332
▁Мария	-13333
orial	-13334
▁paused	-13335
▁inclined	-13336
фель	-13337
▁fold	-13338
▁Мало	-13339
▁упала	-13340
▁hint	-13341
▁worn	-13342
▁specul	-13343
low	-13344
▁inex	-13345
▁тали	-13346
начале	-13347
▁преле	-13348
▁humble	-13349
▁dawn	-13350
▁преды	-13351
▁visible	-13352
alties	-13353
Come	-13354
idents	-13355
▁предме	-13356
▁лы	-13357
▁Pol	-13358
▁empire	-13359
▁ладонь	-13360
▁pist	-13361
▁cousin	-13362
▁writers	-13363
▁взгляды	-13364
сии	-13365
▁AF	-13366
▁appeal	-13367
▁перевер	-13368
▁несомненно	-13369
▁Lie	-13370
▁попыталась	-13371
▁массо	-13372
▁лабора	-13373
пка	-13374
▁jew	-13375
▁запомни	-13376
▁extremely	-13377
▁Доб	-13378
▁стату	-13379
зап	-13380
кина	-13381
нялся	-13382
▁spend	-13383
igation	-13384
▁belonged	-13385
▁northern	-13386
ller	-13387
▁doc	-13388
▁vou	-13389
▁Бор	-13390
▁администра	-13391
▁batt	-13392
▁Grand	-13393
▁опе	-13394
▁frank	-13395
▁преобра	-13396
▁bi	-13397
стная	-13398
▁unus	-13399
меи	-13400
▁ов	-13401
▁Dec	-13402
▁звезды	-13403
▁conflict	-13404
▁inquired	-13405
риа	-13406
▁stuff	-13407
пира	-13408
▁Cons	-13409
пеливо	-13410
▁fatal	-13411
▁китай	-13412
тившись	-13413
▁судоро	-13414
фом	-13415
▁другому	-13416
▁идея	-13417
▁_--	-13418
▁сущности	-13419
рку	-13420
ферен	-13421
▁передви	-13422
▁Син	-13423
ереть	-13424
▁eman	-13425
▁leurs	-13426
▁clouds	-13427
▁интересу	-13428
▁непременно	-13429
▁щел	-13430
▁привести	-13431
▁Cap	-13432
▁меры	-13433
зира	-13434
▁Except	-13435
wers	-13436
▁sed	-13437
ционного	-13438
▁incident	-13439
1-	-13440
OD	-13441
тельством	-13442
▁charm	-13443
▁Многие	-13444
▁independent	-13445
fice	-13446
this	-13447
venue	-13448
▁везде	-13449
▁произведения	-13450
хин	-13451
▁rig	-13452
сных	-13453
▁Ke	-13454
▁черты	-13455
▁Говори	-13456
ieved	-13457
дному	-13458
▁ходить	-13459
▁mysterious	-13460
вах	-13461
▁stret	-13462
▁37	-13463
жила	-13464
aints	-13465
▁shade	-13466
▁характера	-13467
▁биз	-13468
teenth	-13469
▁входа	-13470
▁reform	-13471
▁asleep	-13472
ogue	-13473
▁hidden	-13474
▁acknowled	-13475
NER	-13476
▁betray	-13477
▁references	-13478
▁устре	-13479
▁телеви	-13480
▁слышала	-13481
▁formerly	-13482
▁обществе	-13483
▁любовью	-13484
▁вернулись	-13485
йка	-13486
▁фоне	-13487
▁безум	-13488
▁лок	-13489
▁собственного	-13490
▁key	-13491
▁каждое	-13492
▁влияние	-13493
▁Давай	-13494
▁оте	-13495
▁Indeed	-13496
▁mechan	-13497
▁светом	-13498
▁прислуши	-13499
йо	-13500
▁крат	-13501
▁toler	-13502
▁тыс	-13503
▁sel	-13504
▁еле	-13505
▁сцен	-13506
▁проговорил	-13507
==	-13508
мене	-13509
▁шее	-13510
▁прими	-13511
▁зарабо	-13512
▁приклю	-13513
tle	-13514
▁rear	-13515
▁entitled	-13516
▁republic	-13517
думать	-13518
▁сумас	-13519
▁Africa	-13520
▁шлем	-13521
▁нако	-13522
▁approached	-13523
Sh	-13524
▁ухмы	-13525
▁активно	-13526
▁returning	-13527
мут	-13528
ченко	-13529
▁роста	-13530
шней	-13531
▁mud	-13532
▁fled	-13533
КА	-13534
▁Os	-13535
▁оз	-13536
▁вое	-13537
▁eleg	-13538
▁ждали	-13539
▁Master	-13540
▁заж	-13541
шев	-13542
щенно	-13543
▁засе	-13544
4]	-13545
▁Марга	-13546
▁comfortable	-13547
▁confusion	-13548
▁cotton	-13549
▁Оба	-13550
рго	-13551
▁Val	-13552
▁полчаса	-13553
гия	-13554
▁учеб	-13555
▁atmosp	-13556
▁Pri	-13557
▁старой	-13558
▁enterpr	-13559
▁federal	-13560
▁констру	-13561
▁оставаться	-13562
▁acquainted	-13563
ko	-13564
▁Sie	-13565
▁Уж	-13566
▁recent	-13567
▁BRE	-13568
▁рекомен	-13569
сор	-13570
▁помол	-13571
▁concluded	-13572
▁семья	-13573
▁Кристи	-13574
кости	-13575
▁белой	-13576
▁wie	-13577
▁отва	-13578
совой	-13579
▁Uncle	-13580
▁испуга	-13581
пит	-13582
▁поту	-13583
▁множе	-13584
car	-13585
▁ocean	-13586
Se	-13587
▁оса	-13588
▁бутылку	-13589
▁тропи	-13590
BS	-13591
zo	-13592
▁недоум	-13593
ierre	-13594
мотреть	-13595
▁vel	-13596
▁VII	-13597
▁Аб	-13598
▁стук	-13599
▁leader	-13600
▁National	-13601
▁передо	-13602
uced	-13603
алли	-13604
▁como	-13605
▁southern	-13606
новой	-13607
▁апре	-13608
▁Martin	-13609
▁discont	-13610
omer	-13611
▁subsequ	-13612
ancing	-13613
▁setting	-13614
▁miserable	-13615
▁ледя	-13616
женное	-13617
▁пли	-13618
▁aunt	-13619
▁будучи	-13620
▁происхо	-13621
нте	-13622
▁fourth	-13623
▁Кажется	-13624
▁Никогда	-13625
mbly	-13626
нешь	-13627
▁циф	-13628
▁Карл	-13629
▁encoun	-13630
▁Зо	-13631
▁trail	-13632
▁мальчика	-13633
▁встретил	-13634
▁рассмеялся	-13635
дце	-13636
▁Var	-13637
▁Wood	-13638
86	-13639
▁Джен	-13640
▁свидете	-13641
▁Belg	-13642
99	-13643
▁disposition	-13644
пая	-13645
щалась	-13646
▁commanded	-13647
▁торгов	-13648
▁centuries	-13649
▁Борис	-13650
▁Женщина	-13651
▁vac	-13652
▁tail	-13653
▁исключительно	-13654
▁compet	-13655
▁January	-13656
тельном	-13657
▁кусо	-13658
▁подальше	-13659
▁lic	-13660
▁dance	-13661
▁успели	-13662
▁thousands	-13663
▁oh	-13664
ifies	-13665
▁вашего	-13666
▁очу	-13667
▁fest	-13668
▁eternal	-13669
▁скорость	-13670
▁философии	-13671
▁Глу	-13672
▁всад	-13673
▁боевых	-13674
▁ключ	-13675
▁armed	-13676
▁ветра	-13677
дик	-13678
Йор	-13679
▁обор	-13680
----------------	-13681
вее	-13682
▁WH	-13683
▁открыть	-13684
▁сад	-13685
▁urged	-13686
OND	-13687
ORK	-13688
inging	-13689
тельница	-13690
▁depends	-13691
mon	-13692
▁sein	-13693
▁левой	-13694
▁твоей	-13695
bel	-13696
▁signs	-13697
▁бывало	-13698
▁disease	-13699
поль	-13700
▁зате	-13701
▁ham	-13702
▁kings	-13703
▁dreams	-13704
мость	-13705
▁Петро	-13706
▁погло	-13707
▁семье	-13708
▁observ	-13709
▁geb	-13710
▁voyage	-13711
рона	-13712
▁claims	-13713
▁compared	-13714
▁profound	-13715
▁выро	-13716
▁хими	-13717
▁зовут	-13718
▁pardon	-13719
▁distress	-13720
▁Pompe	-13721
▁симво	-13722
▁капитана	-13723
▁нере	-13724
▁xx	-13725
▁дам	-13726
надца	-13727
▁anticip	-13728
▁телефону	-13729
▁%	-13730
лий	-13731
▁weap	-13732
▁insp	-13733
▁adventure	-13734
▁Голос	-13735
▁Федера	-13736
▁Mid	-13737
▁твои	-13738
вающих	-13739
▁grant	-13740
▁solid	-13741
▁pressure	-13742
_,"	-13743
▁Стив	-13744
▁колле	-13745
▁заболе	-13746
▁европей	-13747
3]	-13748
▁удосто	-13749
▁Majesty	-13750
▁предыду	-13751
ющимся	-13752
▁расти	-13753
▁weakness	-13754
▁поцеловал	-13755
3-	-13756
▁Kent	-13757
▁идут	-13758
▁кожу	-13759
нением	-13760
▁circumstance	-13761
Qu	-13762
▁displayed	-13763
▁poison	-13764
▁генерала	-13765
▁esp	-13766
▁начин	-13767
вис	-13768
▁pil	-13769
▁tribes	-13770
▁механи	-13771
▁недель	-13772
▁Republic	-13773
ненные	-13774
▁savage	-13775
rael	-13776
▁moder	-13777
▁affected	-13778
▁occasionally	-13779
нский	-13780
▁попасть	-13781
▁Corn	-13782
▁ждала	-13783
▁готова	-13784
▁видне	-13785
withstanding	-13786
▁sind	-13787
▁thrust	-13788
тельностью	-13789
▁ignorance	-13790
▁restrictions	-13791
▁рад	-13792
▁route	-13793
▁услышала	-13794
igne	-13795
uns	-13796
тир	-13797
▁Term	-13798
▁дала	-13799
▁вопло	-13800
▁curiosity	-13801
▁discovery	-13802
2-	-13803
rous	-13804
▁guilty	-13805
▁LIC	-13806
▁Бан	-13807
▁fever	-13808
▁Савелий	-13809
▁утрен	-13810
▁выклю	-13811
▁secured	-13812
▁невероят	-13813
▁основания	-13814
▁повед	-13815
▁знания	-13816
▁пойдет	-13817
▁Вит	-13818
00.	-13819
▁вок	-13820
▁итальян	-13821
▁лист	-13822
▁энергии	-13823
▁единственный	-13824
вето	-13825
▁шах	-13826
▁желу	-13827
▁dischar	-13828
▁связы	-13829
виков	-13830
▁zijne	-13831
▁каждую	-13832
▁правой	-13833
ijn	-13834
тилось	-13835
▁Wilson	-13836
▁softly	-13837
▁англича	-13838
▁любила	-13839
▁поворачи	-13840
▁accordingly	-13841
▁Mo	-13842
нившись	-13843
▁horror	-13844
ляли	-13845
пами	-13846
▁безза	-13847
.).	-13848
rection	-13849
time	-13850
▁Ange	-13851
▁horn	-13852
▁матер	-13853
▁обита	-13854
▁December	-13855
▁enjoyed	-13856
▁finan	-13857
нора	-13858
▁thence	-13859
▁растеря	-13860
последствии	-13861
Во	-13862
▁сравни	-13863
bon	-13864
ченная	-13865
▁тамо	-13866
▁полк	-13867
▁chest	-13868
▁contains	-13869
▁съез	-13870
▁throat	-13871
▁specified	-13872
ваний	-13873
▁eloqu	-13874
▁постанов	-13875
▁Укра	-13876
итлеров	-13877
▁гвардей	-13878
▁позиции	-13879
▁pouv	-13880
▁домов	-13881
▁километров	-13882
кови	-13883
itute	-13884
▁коню	-13885
▁calculated	-13886
▁новая	-13887
▁sixty	-13888
armed	-13889
▁plans	-13890
▁честно	-13891
rived	-13892
▁полиции	-13893
▁смогла	-13894
▁Джим	-13895
▁Более	-13896
▁поверить	-13897
held	-13898
▁склады	-13899
lev	-13900
arian	-13901
▁документы	-13902
шевели	-13903
▁подлин	-13904
▁LICENSE	-13905
fty	-13906
▁косми	-13907
▁тоном	-13908
▁отодви	-13909
▁conviction	-13910
▁rien	-13911
▁выходит	-13912
▁magnificent	-13913
нологи	-13914
▁commerce	-13915
пели	-13916
енья	-13917
▁Рича	-13918
▁темные	-13919
▁+	-13920
iano	-13921
лично	-13922
▁любого	-13923
▁exposed	-13924
писи	-13925
див	-13926
▁ито	-13927
▁impr	-13928
▁блу	-13929
▁Алексе	-13930
▁vote	-13931
жалось	-13932
▁коленях	-13933
▁36	-13934
▁viv	-13935
▁выделя	-13936
▁костюм	-13937
▁покачала	-13938
▁мораль	-13939
▁следом	-13940
▁зрели	-13941
▁интересно	-13942
▁plat	-13943
▁swept	-13944
▁editor	-13945
▁дядя	-13946
▁таре	-13947
▁Chief	-13948
▁человеческого	-13949
▁Ага	-13950
▁марш	-13951
▁поверхность	-13952
▁перспе	-13953
▁frag	-13954
anim	-13955
▁импе	-13956
▁обши	-13957
▁occasions	-13958
asy	-13959
▁utmost	-13960
tre	-13961
▁принце	-13962
▁agreeable	-13963
▁распу	-13964
▁квартиры	-13965
▁незаметно	-13966
▁compressed	-13967
▁clergy	-13968
▁вовремя	-13969
шни	-13970
▁liqu	-13971
▁произвед	-13972
▁4.	-13973
▁вещ	-13974
▁narr	-13975
▁находилась	-13976
▁распростран	-13977
▁hit	-13978
▁жителей	-13979
жник	-13980
▁кабинете	-13981
▁определить	-13982
леты	-13983
▁Use	-13984
▁Mother	-13985
пили	-13986
▁temps	-13987
▁умол	-13988
▁frame	-13989
ula	-13990
▁педаго	-13991
▁anxiety	-13992
сель	-13993
▁consciousness	-13994
eral	-13995
▁Trans	-13996
▁Москвы	-13997
нел	-13998
fund	-13999
▁Monsieur	-14000
da	-14001
▁GEOR	-14002
▁trop	-14003
▁марки	-14004
▁яй	-14005
eten	-14006
oking	-14007
▁сцена	-14008
▁ela	-14009
▁живых	-14010
▁очередной	-14011
▁intr	-14012
▁neighb	-14013
abel	-14014
cribed	-14015
▁немно	-14016
▁Pre	-14017
▁дрожа	-14018
▁generous	-14019
▁радостно	-14020
ссия	-14021
ич	-14022
эта	-14023
▁bree	-14024
▁Следу	-14025
▁состояния	-14026
▁helped	-14027
▁автобу	-14028
▁идеи	-14029
▁folks	-14030
Са	-14031
▁исчезла	-14032
irit	-14033
▁адре	-14034
▁vu	-14035
▁unconscious	-14036
▁Bu	-14037
▁Bru	-14038
▁Пой	-14039
▁vague	-14040
летия	-14041
▁struct	-14042
▁класса	-14043
▁ignorant	-14044
▁подобных	-14045
▁convinced	-14046
▁characters	-14047
ijd	-14048
▁печа	-14049
▁province	-14050
▁двинулся	-14051
▁registered	-14052
ulate	-14053
▁impl	-14054
▁безна	-14055
▁женщине	-14056
▁Ники	-14057
▁anybody	-14058
▁плащ	-14059
▁рабочих	-14060
▁предвари	-14061
laced	-14062
elling	-14063
▁майор	-14064
▁шоссе	-14065
▁sacrifice	-14066
▁опустился	-14067
orable	-14068
▁гостиной	-14069
▁хотят	-14070
bridge	-14071
▁Other	-14072
▁Джули	-14073
▁отцом	-14074
▁Mex	-14075
▁whence	-14076
▁стоять	-14077
▁Gen	-14078
▁нею	-14079
▁debt	-14080
▁рассте	-14081
▁чинов	-14082
▁Jews	-14083
▁Бело	-14084
▁подзем	-14085
▁promoting	-14086
vest	-14087
▁Спо	-14088
▁дерево	-14089
▁February	-14090
▁бою	-14091
гнал	-14092
▁стака	-14093
▁hitherto	-14094
▁Интересно	-14095
▁heeft	-14096
34;	-14097
▁Tit	-14098
▁наря	-14099
▁получили	-14100
ography	-14101
ATH	-14102
iten	-14103
▁зря	-14104
▁паци	-14105
▁Lincoln	-14106
▁Off	-14107
jours	-14108
▁угла	-14109
▁укреп	-14110
ym	-14111
▁owns	-14112
▁tight	-14113
зит	-14114
▁puis	-14115
▁делают	-14116
илли	-14117
рите	-14118
ваете	-14119
▁aussi	-14120
зон	-14121
вных	-14122
▁gij	-14123
▁Look	-14124
adem	-14125
▁Eve	-14126
▁Hu	-14127
▁поте	-14128
▁маленькая	-14129
ссар	-14130
▁сбор	-14131
▁семи	-14132
▁Нужно	-14133
нялись	-14134
▁counter	-14135
▁командира	-14136
▁Mess	-14137
▁bid	-14138
▁damages	-14139
▁steep	-14140
▁finger	-14141
▁заниматься	-14142
▁называется	-14143
▁definite	-14144
▁job	-14145
▁sust	-14146
▁худ	-14147
▁Старик	-14148
▁preserved	-14149
▁кстати	-14150
utch	-14151
▁опла	-14152
▁имена	-14153
каи	-14154
шается	-14155
▁смело	-14156
▁соору	-14157
▁observe	-14158
кас	-14159
нель	-14160
▁дожд	-14161
▁судеб	-14162
▁сравнению	-14163
lde	-14164
▁накры	-14165
▁стрель	-14166
НО	-14167
▁вынужден	-14168
▁месту	-14169
▁reputation	-14170
ИТ	-14171
тивной	-14172
▁попыта	-14173
▁соблаз	-14174
▁Reg	-14175
зиться	-14176
▁Почти	-14177
форм	-14178
▁Хан	-14179
▁attempted	-14180
oren	-14181
▁памят	-14182
▁announced	-14183
рной	-14184
▁прийти	-14185
▁слышно	-14186
▁Гарри	-14187
▁DIST	-14188
▁club	-14189
▁обору	-14190
▁unl	-14191
фона	-14192
▁Prov	-14193
▁nodded	-14194
▁rushed	-14195
▁um	-14196
ционе	-14197
▁cart	-14198
▁сверка	-14199
▁поближе	-14200
▁horiz	-14201
59;	-14202
▁вынужд	-14203
▁Alexander	-14204
61;	-14205
пила	-14206
urely	-14207
ваешь	-14208
▁дав	-14209
▁изящ	-14210
радо	-14211
никах	-14212
тание	-14213
▁boats	-14214
▁Шо	-14215
жкой	-14216
▁meer	-14217
▁Which	-14218
▁ужасно	-14219
енными	-14220
нского	-14221
риться	-14222
▁Irish	-14223
гно	-14224
▁History	-14225
▁остановились	-14226
▁union	-14227
▁ногой	-14228
▁хлеба	-14229
▁behold	-14230
▁corpor	-14231
▁amongst	-14232
▁referred	-14233
▁Оче	-14234
▁судьбы	-14235
):	-14236
▁fu	-14237
▁едино	-14238
▁benefit	-14239
▁civilization	-14240
▁Germans	-14241
3;	-14242
▁нераз	-14243
▁приготов	-14244
OSE	-14245
apel	-14246
▁Ман	-14247
▁Вместо	-14248
▁фигура	-14249
racy	-14250
▁prud	-14251
▁отка	-14252
ago	-14253
▁gi	-14254
▁traged	-14255
▁несо	-14256
▁Джордж	-14257
▁посред	-14258
▁отсутствие	-14259
▁воле	-14260
▁принимать	-14261
зились	-14262
▁всяких	-14263
▁hers	-14264
▁неподвижно	-14265
▁теоре	-14266
▁доступ	-14267
▁wretched	-14268
▁Цен	-14269
▁концу	-14270
▁departure	-14271
▁мечта	-14272
▁Since	-14273
▁blessed	-14274
▁Ral	-14275
мец	-14276
сная	-14277
▁Dem	-14278
▁Chap	-14279
▁mild	-14280
▁ingen	-14281
▁хороший	-14282
▁fulf	-14283
▁судя	-14284
▁anger	-14285
▁языком	-14286
▁общество	-14287
▁pad	-14288
▁diff	-14289
ensch	-14290
▁аресто	-14291
рованные	-14292
▁wheel	-14293
▁кухне	-14294
▁нашла	-14295
кори	-14296
щена	-14297
▁buildings	-14298
▁attrib	-14299
▁девять	-14300
хие	-14301
щами	-14302
▁Int	-14303
▁вспомнила	-14304
▁construct	-14305
▁принялась	-14306
lets	-14307
ктором	-14308
▁grim	-14309
▁match	-14310
▁прибо	-14311
▁военных	-14312
▁ваша	-14313
▁форма	-14314
▁познакоми	-14315
abled	-14316
▁readers	-14317
▁уез	-14318
ground	-14319
Но	-14320
Tis	-14321
▁Ill	-14322
▁правительство	-14323
▁Фор	-14324
▁inev	-14325
unning	-14326
▁пропу	-14327
▁reject	-14328
▁промол	-14329
▁захотелось	-14330
рки	-14331
▁балета	-14332
▁исследования	-14333
▁разра	-14334
▁disturb	-14335
▁делали	-14336
тиви	-14337
▁eggs	-14338
▁окну	-14339
▁ton	-14340
водить	-14341
▁понимать	-14342
▁расстоянии	-14343
▁VIII	-14344
▁gift	-14345
далеко	-14346
▁archit	-14347
▁препят	-14348
▁precise	-14349
▁supreme	-14350
▁5.	-14351
▁strongly	-14352
▁Christianity	-14353
▁penet	-14354
▁FR	-14355
валь	-14356
urbed	-14357
▁Совета	-14358
uthors	-14359
▁самолетов	-14360
▁настроение	-14361
▁sees	-14362
▁resour	-14363
▁маленькие	-14364
тят	-14365
▁сочета	-14366
▁расстре	-14367
▁слушать	-14368
▁Ik	-14369
твори	-14370
▁specim	-14371
▁оставив	-14372
▁теории	-14373
▁книг	-14374
▁препода	-14375
▁quarters	-14376
▁провин	-14377
▁монасты	-14378
сятся	-14379
▁заре	-14380
дие	-14381
летела	-14382
▁natives	-14383
▁breaking	-14384
▁accompany	-14385
▁расто	-14386
▁поставить	-14387
▁торопливо	-14388
▁observation	-14389
CI	-14390
▁ard	-14391
▁crimin	-14392
тива	-14393
▁День	-14394
▁похож	-14395
▁Governor	-14396
▁волны	-14397
киды	-14398
▁Кам	-14399
ворот	-14400
▁плат	-14401
▁interior	-14402
▁corps	-14403
▁процесса	-14404
_!	-14405
▁качества	-14406
▁organized	-14407
▁идей	-14408
▁сюжет	-14409
▁clever	-14410
▁хватает	-14411
stairs	-14412
▁trace	-14413
▁книге	-14414
▁повел	-14415
▁волосами	-14416
▁спросить	-14417
rad	-14418
▁отдох	-14419
▁dimin	-14420
▁вытя	-14421
▁pause	-14422
▁соблю	-14423
▁confirmed	-14424
▁cott	-14425
▁hell	-14426
▁мыслей	-14427
душно	-14428
▁туск	-14429
▁приоткры	-14430
торо	-14431
ifying	-14432
▁Both	-14433
▁Какое	-14434
▁rude	-14435
вшем	-14436
мотр	-14437
тром	-14438
▁(195	-14439
▁picked	-14440
▁иска	-14441
▁Петрович	-14442
▁tie	-14443
▁deliver	-14444
▁deed	-14445
▁имею	-14446
далась	-14447
▁Второй	-14448
▁поправи	-14449
▁Сара	-14450
словно	-14451
▁попытки	-14452
▁cens	-14453
▁wings	-14454
▁interview	-14455
зал	-14456
фей	-14457
▁ALL	-14458
▁Hand	-14459
▁knife	-14460
▁свободу	-14461
ьет	-14462
▁числа	-14463
▁достиг	-14464
yt	-14465
▁pipe	-14466
▁files	-14467
rane	-14468
▁ладно	-14469
▁united	-14470
▁декабря	-14471
▁играл	-14472
▁поисках	-14473
32;	-14474
▁shr	-14475
iring	-14476
▁казались	-14477
▁32	-14478
aced	-14479
▁копи	-14480
▁живу	-14481
▁Итали	-14482
▁pup	-14483
гаться	-14484
дования	-14485
▁бессмыс	-14486
▁перехва	-14487
▁Гэ	-14488
▁кош	-14489
▁inval	-14490
▁disgra	-14491
▁расчет	-14492
тации	-14493
▁позволяет	-14494
▁уют	-14495
▁gaze	-14496
▁colon	-14497
▁пороге	-14498
▁дежур	-14499
▁информацию	-14500
▁происходило	-14501
сек	-14502
▁greet	-14503
▁некогда	-14504
▁expedition	-14505
▁беспре	-14506
▁Christmas	-14507
▁человеческой	-14508
liness	-14509
▁какими	-14510
▁будущем	-14511
▁delighted	-14512
▁рей	-14513
ченное	-14514
▁spark	-14515
iveness	-14516
▁расста	-14517
▁словах	-14518
▁painted	-14519
▁взды	-14520
▁похи	-14521
▁Upon	-14522
▁хму	-14523
▁excess	-14524
▁Illustr	-14525
▁instances	-14526
▁unfortunate	-14527
este	-14528
следу	-14529
▁crew	-14530
бек	-14531
▁резер	-14532
/0	-14533
▁Михаил	-14534
RIB	-14535
▁assumed	-14536
▁воскрес	-14537
▁белых	-14538
▁годов	-14539
▁shru	-14540
▁toujours	-14541
▁atmosphere	-14542
asting	-14543
щений	-14544
orge	-14545
rian	-14546
▁газет	-14547
▁сбо	-14548
▁elder	-14549
aign	-14550
▁tied	-14551
▁подобного	-14552
жья	-14553
▁требует	-14554
▁____	-14555
▁мировой	-14556
▁cos	-14557
▁geen	-14558
▁культур	-14559
▁TR	-14560
▁imposed	-14561
▁elements	-14562
▁employees	-14563
▁лед	-14564
благо	-14565
▁огне	-14566
▁занаве	-14567
▁талант	-14568
▁интелли	-14569
▁philosopher	-14570
▁Снова	-14571
▁refuse	-14572
▁загадо	-14573
▁delightful	-14574
▁впра	-14575
ед	-14576
iasm	-14577
▁Dom	-14578
▁creatures	-14579
rate	-14580
▁мучи	-14581
▁молит	-14582
amation	-14583
стало	-14584
▁WITH	-14585
▁torn	-14586
▁телу	-14587
▁unhappy	-14588
▁Дан	-14589
▁блок	-14590
▁branch	-14591
рк	-14592
▁wives	-14593
▁нелег	-14594
▁apt	-14595
▁красави	-14596
▁фев	-14597
▁напу	-14598
▁узнала	-14599
▁enormous	-14600
▁господ	-14601
стили	-14602
бит	-14603
▁wondered	-14604
▁Ger	-14605
▁Conf	-14606
▁Company	-14607
илась	-14608
▁Lamb	-14609
теллек	-14610
▁ожидая	-14611
думан	-14612
▁несу	-14613
▁ябло	-14614
▁signific	-14615
▁Tw	-14616
дря	-14617
▁lights	-14618
ново	-14619
arrass	-14620
▁сунул	-14621
▁Walter	-14622
▁leaders	-14623
41.	-14624
▁сочи	-14625
▁получилось	-14626
▁walks	-14627
▁склад	-14628
enny	-14629
▁Grace	-14630
▁мысленно	-14631
▁Ox	-14632
▁перео	-14633
▁tables	-14634
.),	-14635
▁лопа	-14636
▁представ	-14637
▁зда	-14638
нутся	-14639
▁grounds	-14640
▁useless	-14641
▁главный	-14642
when	-14643
▁stiff	-14644
lait	-14645
igs	-14646
▁пах	-14647
▁forever	-14648
няют	-14649
чаются	-14650
▁scenes	-14651
▁laughter	-14652
▁Нас	-14653
▁обнару	-14654
oser	-14655
▁выру	-14656
▁flood	-14657
▁insult	-14658
▁Капитан	-14659
zing	-14660
хова	-14661
▁widest	-14662
▁Napole	-14663
гиба	-14664
▁Bob	-14665
▁Dra	-14666
▁filed	-14667
▁коротко	-14668
Id	-14669
▁6,	-14670
▁млн	-14671
▁shining	-14672
▁отношений	-14673
лагал	-14674
▁determine	-14675
▁стремительно	-14676
▁IS	-14677
▁Whe	-14678
lichen	-14679
▁nomin	-14680
шало	-14681
До	-14682
▁макси	-14683
▁bou	-14684
ставив	-14685
FF	-14686
фов	-14687
eman	-14688
ington	-14689
▁республи	-14690
▁mijn	-14691
куро	-14692
▁waves	-14693
▁college	-14694
▁оре	-14695
▁obed	-14696
▁liability	-14697
▁interrupted	-14698
▁hyp	-14699
▁одежды	-14700
▁недостаточно	-14701
isch	-14702
stead	-14703
▁quand	-14704
▁fais	-14705
▁scorn	-14706
▁founded	-14707
4)	-14708
▁Эм	-14709
▁plate	-14710
▁отъез	-14711
▁smaller	-14712
▁камни	-14713
▁гли	-14714
▁coal	-14715
▁pend	-14716
▁await	-14717
▁планы	-14718
▁хлоп	-14719
куль	-14720
▁виски	-14721
▁ранее	-14722
two	-14723
30;	-14724
▁штаба	-14725
▁burden	-14726
▁частей	-14727
▁соч	-14728
▁подле	-14729
▁islands	-14730
▁перестал	-14731
▁рост	-14732
▁Atl	-14733
▁Обра	-14734
▁покрас	-14735
▁волю	-14736
▁ощутил	-14737
ненных	-14738
▁beings	-14739
▁coffee	-14740
▁frightened	-14741
▁retired	-14742
▁division	-14743
чник	-14744
inter	-14745
▁ming	-14746
▁решет	-14747
▁внезап	-14748
han	-14749
пуль	-14750
▁терро	-14751
▁pushed	-14752
▁degrees	-14753
▁181	-14754
▁rival	-14755
▁данные	-14756
resses	-14757
raction	-14758
▁положила	-14759
▁Федерации	-14760
ологии	-14761
▁произно	-14762
▁suspicion	-14763
pent	-14764
▁свободы	-14765
▁intent	-14766
ственном	-14767
▁Georgia	-14768
▁pursued	-14769
▁причине	-14770
fred	-14771
перва	-14772
▁пота	-14773
▁residence	-14774
ок	-14775
▁ged	-14776
▁Мать	-14777
▁taxes	-14778
▁размер	-14779
ствовало	-14780
ковник	-14781
▁Accord	-14782
▁причины	-14783
▁принадлежит	-14784
▁Sand	-14785
▁взяли	-14786
▁огромные	-14787
▁bat	-14788
▁щеки	-14789
▁unexpected	-14790
▁взвол	-14791
▁scheme	-14792
▁объяснил	-14793
▁bosom	-14794
▁thanks	-14795
▁application	-14796
см	-14797
▁39	-14798
▁завое	-14799
сни	-14800
▁безраз	-14801
▁квадра	-14802
▁slavehold	-14803
▁apprent	-14804
▁stepped	-14805
▁Геор	-14806
▁Одно	-14807
ov	-14808
▁acted	-14809
▁иро	-14810
▁посу	-14811
▁rolled	-14812
▁эн	-14813
▁Север	-14814
▁описы	-14815
▁acquired	-14816
▁удивленно	-14817
hend	-14818
▁operation	-14819
▁начальника	-14820
▁communication	-14821
aur	-14822
arth	-14823
дность	-14824
▁consul	-14825
33;	-14826
▁штаб	-14827
▁approaching	-14828
uw	-14829
▁Николас	-14830
upp	-14831
▁Si	-14832
▁arist	-14833
▁encoura	-14834
▁передать	-14835
▁peut	-14836
▁Солнце	-14837
iency	-14838
▁Опять	-14839
▁Российской	-14840
▁excuse	-14841
▁somewhere	-14842
Па	-14843
▁огор	-14844
менно	-14845
▁stairs	-14846
▁понимает	-14847
▁новым	-14848
ARK	-14849
▁Represent	-14850
▁zal	-14851
ранда	-14852
▁chapter	-14853
▁magistr	-14854
▁пиджа	-14855
ционные	-14856
▁teaching	-14857
▁Дра	-14858
▁актё	-14859
▁лени	-14860
▁велел	-14861
▁collected	-14862
▁scientific	-14863
▁slept	-14864
wij	-14865
mist	-14866
сев	-14867
ENTS	-14868
▁рыба	-14869
вторых	-14870
▁resistance	-14871
▁Вместе	-14872
▁withdra	-14873
▁увле	-14874
▁кости	-14875
amma	-14876
rick	-14877
▁puzz	-14878
▁Лучше	-14879
▁девчон	-14880
▁позвонил	-14881
See	-14882
▁Cur	-14883
▁крю	-14884
▁матро	-14885
▁школу	-14886
▁feared	-14887
▁прошу	-14888
▁impulse	-14889
▁returns	-14890
хам	-14891
▁родителей	-14892
▁Пан	-14893
ester	-14894
▁чувствуя	-14895
▁Ус	-14896
▁буль	-14897
▁cloth	-14898
▁герман	-14899
unction	-14900
▁bones	-14901
▁парня	-14902
▁дверях	-14903
▁заканчи	-14904
▁EB	-14905
▁ровно	-14906
▁lonely	-14907
▁душ	-14908
▁hole	-14909
▁!	-14910
▁разом	-14911
бал	-14912
▁тяж	-14913
▁invol	-14914
▁Союза	-14915
▁REP	-14916
плома	-14917
▁любом	-14918
▁glanced	-14919
вству	-14920
▁Full	-14921
▁стекля	-14922
▁District	-14923
▁stamp	-14924
▁industry	-14925
ums	-14926
шне	-14927
▁вслух	-14928
▁relative	-14929
▁середине	-14930
жек	-14931
▁уны	-14932
▁stup	-14933
▁loves	-14934
▁immort	-14935
▁офицеров	-14936
▁sentiments	-14937
пети	-14938
▁актёр	-14939
▁сохранить	-14940
▁failure	-14941
▁лаборато	-14942
57;	-14943
дном	-14944
▁упре	-14945
летели	-14946
шенной	-14947
▁crowded	-14948
▁планеты	-14949
ОМ	-14950
стин	-14951
▁Джи	-14952
▁рту	-14953
ждой	-14954
пела	-14955
▁Свер	-14956
▁assert	-14957
▁sources	-14958
▁рассказывать	-14959
▁банди	-14960
▁emancip	-14961
▁отвечает	-14962
▁удивительно	-14963
ubl	-14964
тями	-14965
▁worden	-14966
▁собирается	-14967
▁risk	-14968
▁depos	-14969
▁отчетливо	-14970
▁кап	-14971
ieder	-14972
▁выбор	-14973
гран	-14974
▁излу	-14975
▁whilst	-14976
_?	-14977
▁подраз	-14978
▁силами	-14979
▁Дар	-14980
▁commenced	-14981
▁реке	-14982
▁короле	-14983
▁рестора	-14984
зар	-14985
▁adj	-14986
▁дважды	-14987
▁recently	-14988
▁компьютер	-14989
▁Squ	-14990
▁scale	-14991
▁немцы	-14992
▁confirm	-14993
▁смя	-14994
▁Иванов	-14995
▁Нар	-14996
▁вела	-14997
▁ПР	-14998
▁gif	-14999
IRECT	-15000
▁серди	-15001
chester	-15002
▁enthusiasm	-15003
opyright	-15004
пти	-15005
▁патри	-15006
▁конфлик	-15007
вие	-15008
▁ву	-15009
▁сх	-15010
▁Bab	-15011
ancholy	-15012
▁стекло	-15013
▁plainly	-15014
▁Жан	-15015
▁finds	-15016
▁поведение	-15017
талки	-15018
тками	-15019
▁округ	-15020
шите	-15021
▁Bro	-15022
INGTON	-15023
ванного	-15024
▁пальто	-15025
▁катастро	-15026
▁юри	-15027
▁hollow	-15028
▁gez	-15029
▁prisoners	-15030
liver	-15031
▁рубе	-15032
▁вопроса	-15033
лела	-15034
льным	-15035
▁повре	-15036
▁повторил	-15037
▁uncertain	-15038
▁prominently	-15039
настоя	-15040
сное	-15041
▁Syl	-15042
▁Кали	-15043
By	-15044
▁музыка	-15045
2;	-15046
usqu	-15047
▁адрес	-15048
лян	-15049
olid	-15050
▁Прави	-15051
▁ходил	-15052
58;	-15053
хоро	-15054
▁бокал	-15055
▁матем	-15056
▁Israel	-15057
▁resol	-15058
▁Austria	-15059
▁воинов	-15060
▁систему	-15061
▁создать	-15062
▁старший	-15063
▁charming	-15064
▁старые	-15065
▁desperate	-15066
енько	-15067
▁image	-15068
▁губам	-15069
▁подра	-15070
▁состави	-15071
▁consequently	-15072
1(	-15073
▁absor	-15074
LEY	-15075
▁показался	-15076
▁Salt	-15077
▁очки	-15078
▁****	-15079
▁проси	-15080
▁твори	-15081
▁зависит	-15082
рек	-15083
▁подбо	-15084
▁7,	-15085
ерри	-15086
▁живут	-15087
ждению	-15088
▁million	-15089
алан	-15090
▁stared	-15091
▁experiment	-15092
^,	-15093
rim	-15094
жна	-15095
▁кирпи	-15096
ляя	-15097
▁nevertheless	-15098
▁clo	-15099
▁иници	-15100
▁спаса	-15101
▁conceal	-15102
▁section	-15103
тору	-15104
▁standard	-15105
dig	-15106
ailing	-15107
▁неведо	-15108
жился	-15109
▁array	-15110
▁loving	-15111
▁бомбарди	-15112
щают	-15113
▁Roy	-15114
▁ped	-15115
▁Рус	-15116
▁Three	-15117
▁лучших	-15118
▁opposed	-15119
▁удавалось	-15120
бле	-15121
▁1/2	-15122
ospel	-15123
▁выбо	-15124
▁раско	-15125
▁invited	-15126
acter	-15127
▁neat	-15128
▁phot	-15129
▁movements	-15130
тивных	-15131
▁волну	-15132
▁ancest	-15133
▁Видимо	-15134
▁надеялся	-15135
board	-15136
arrison	-15137
▁зата	-15138
▁Такой	-15139
▁readily	-15140
ador	-15141
▁nie	-15142
▁Обе	-15143
▁poets	-15144
eps	-15145
юль	-15146
▁Тома	-15147
ленное	-15148
жны	-15149
▁Ад	-15150
▁Вой	-15151
orting	-15152
▁здание	-15153
▁zur	-15154
▁обороны	-15155
xed	-15156
55;	-15157
▁92,	-15158
▁Terms	-15159
▁зубами	-15160
▁Gard	-15161
▁указал	-15162
▁особенности	-15163
▁становилось	-15164
▁Out	-15165
▁deny	-15166
▁москов	-15167
▁Fin	-15168
▁meal	-15169
▁перегово	-15170
вке	-15171
▁купить	-15172
довала	-15173
▁каждому	-15174
▁соло	-15175
▁вежливо	-15176
▁confined	-15177
▁developed	-15178
▁пыли	-15179
▁obvious	-15180
▁думаешь	-15181
▁soci	-15182
руется	-15183
▁counsel	-15184
▁fois	-15185
▁картины	-15186
▁задумался	-15187
dated	-15188
▁NEW	-15189
▁testimony	-15190
▁гим	-15191
▁отцу	-15192
▁черных	-15193
▁establishment	-15194
▁Bos	-15195
ъе	-15196
ложили	-15197
▁Скоро	-15198
▁сказано	-15199
▁toute	-15200
▁назвал	-15201
▁inquiry	-15202
▁произнесла	-15203
▁Вс	-15204
▁slightly	-15205
вано	-15206
urches	-15207
▁сестры	-15208
▁серде	-15209
▁Public	-15210
▁зер	-15211
гивая	-15212
▁кабинета	-15213
брь	-15214
нуне	-15215
▁топо	-15216
▁отказался	-15217
234	-15218
rup	-15219
▁interpre	-15220
▁Jim	-15221
▁будете	-15222
Ра	-15223
ссов	-15224
▁dict	-15225
▁невиди	-15226
iot	-15227
▁borne	-15228
▁Bishop	-15229
▁закричал	-15230
▁tradition	-15231
ucht	-15232
▁patriot	-15233
▁сильный	-15234
▁perceived	-15235
риж	-15236
ault	-15237
▁Earl	-15238
тивного	-15239
тическим	-15240
reck	-15241
▁songs	-15242
▁цветы	-15243
▁прочим	-15244
upon	-15245
▁Gil	-15246
▁Земли	-15247
бородок	-15248
▁напоми	-15249
etz	-15250
▁бесси	-15251
▁ecc	-15252
▁поэт	-15253
(3)	-15254
▁Стре	-15255
▁Jacob	-15256
▁догады	-15257
дир	-15258
▁Max	-15259
▁WAS	-15260
▁слове	-15261
ICK	-15262
▁сдержа	-15263
▁Western	-15264
▁dur	-15265
▁gri	-15266
▁врач	-15267
▁убеди	-15268
ingen	-15269
▁swamp	-15270
▁прибе	-15271
▁writes	-15272
▁подняться	-15273
▁появилось	-15274
ATIONS	-15275
▁falls	-15276
gue	-15277
прият	-15278
▁charges	-15279
▁belonging	-15280
▁readable	-15281
▁dre	-15282
▁pier	-15283
▁ящик	-15284
▁члена	-15285
henomen	-15286
▁отчего	-15287
▁присло	-15288
▁подгото	-15289
▁гитлеров	-15290
ссор	-15291
▁улуч	-15292
хами	-15293
▁trip	-15294
▁offend	-15295
▁справа	-15296
лож	-15297
▁rage	-15298
▁растя	-15299
▁приста	-15300
▁курт	-15301
▁burned	-15302
▁ранены	-15303
▁предстояло	-15304
▁opportunities	-15305
%,	-15306
back	-15307
leness	-15308
▁доктора	-15309
▁Although	-15310
▁сумасшед	-15311
▁содержание	-15312
▁Олег	-15313
▁бросила	-15314
▁страсти	-15315
жок	-15316
ходы	-15317
▁dien	-15318
▁gets	-15319
▁pars	-15320
чалу	-15321
▁Luc	-15322
моему	-15323
▁шагом	-15324
roll	-15325
▁drift	-15326
▁GEORGE	-15327
29;	-15328
▁Хи	-15329
▁пости	-15330
▁экспеди	-15331
▁признать	-15332
▁royalties	-15333
▁rot	-15334
▁хищ	-15335
▁permit	-15336
▁Доктор	-15337
▁каждая	-15338
▁недоволь	-15339
▁направления	-15340
▁rat	-15341
▁военно	-15342
▁Napoleon	-15343
▁computer	-15344
▁небре	-15345
▁позднее	-15346
RIBUT	-15347
vre	-15348
▁COM	-15349
Siden	-15350
шился	-15351
▁потряс	-15352
▁sale	-15353
▁сбро	-15354
▁усилия	-15355
фан	-15356
▁ушли	-15357
98	-15358
ерьез	-15359
Sidenote	-15360
пании	-15361
▁shouted	-15362
▁tide	-15363
▁траги	-15364
▁простой	-15365
▁представление	-15366
мети	-15367
▁зуб	-15368
Plain	-15369
▁authorities	-15370
▁засу	-15371
▁свали	-15372
▁материала	-15373
▁наклонился	-15374
▁взрыв	-15375
ISH	-15376
inations	-15377
ocracy	-15378
щенных	-15379
ocratic	-15380
▁преступления	-15381
▁198	-15382
▁обнял	-15383
▁remarks	-15384
▁популяр	-15385
▁ЦК	-15386
▁Василий	-15387
GL	-15388
▁слева	-15389
▁jur	-15390
▁слад	-15391
▁attacked	-15392
▁эска	-15393
даться	-15394
▁успокаи	-15395
▁Какие	-15396
▁politics	-15397
▁pir	-15398
▁измер	-15399
▁пообе	-15400
чаю	-15401
▁ornament	-15402
▁embarrass	-15403
▁listening	-15404
▁maintained	-15405
нодоро	-15406
lijk	-15407
▁заблу	-15408
▁industri	-15409
alo	-15410
▁всякой	-15411
▁Mill	-15412
▁Sometimes	-15413
▁войти	-15414
▁misery	-15415
вь	-15416
▁района	-15417
▁выглядела	-15418
ferent	-15419
тались	-15420
▁крики	-15421
▁подхва	-15422
oen	-15423
▁ww	-15424
▁ссы	-15425
▁вцепи	-15426
▁tranqu	-15427
▁хорошень	-15428
▁литературы	-15429
▁разглядеть	-15430
mark	-15431
▁останов	-15432
▁www	-15433
▁Jap	-15434
▁oil	-15435
▁flying	-15436
▁конвер	-15437
▁хватило	-15438
▁существования	-15439
etait	-15440
▁полное	-15441
▁consequences	-15442
▁песни	-15443
▁причин	-15444
▁Royalty	-15445
следование	-15446
isk	-15447
▁упомя	-15448
▁возьми	-15449
чаль	-15450
▁имело	-15451
▁shared	-15452
▁institutions	-15453
agon	-15454
▁werd	-15455
▁зв	-15456
даль	-15457
▁зах	-15458
▁courts	-15459
bit	-15460
▁давай	-15461
▁понимаешь	-15462
кен	-15463
▁ax	-15464
▁hen	-15465
▁emph	-15466
▁Гран	-15467
▁trembling	-15468
суль	-15469
▁тяго	-15470
▁погре	-15471
▁раски	-15472
lest	-15473
▁Кан	-15474
▁pover	-15475
▁Жиз	-15476
▁disclaimer	-15477
▁непосредственно	-15478
мани	-15479
▁locations	-15480
ИК	-15481
▁kon	-15482
▁activity	-15483
▁опубли	-15484
▁закрыла	-15485
▁продолжать	-15486
▁signal	-15487
кора	-15488
▁spare	-15489
▁managed	-15490
▁supported	-15491
pher	-15492
▁armies	-15493
▁Penn	-15494
▁лето	-15495
uz	-15496
▁Бонд	-15497
▁убил	-15498
▁email	-15499
▁центр	-15500
▁поняли	-15501
▁specific	-15502
▁пытались	-15503
▁Rel	-15504
course	-15505
IBILITY	-15506
▁marble	-15507
▁Поскольку	-15508
▁beast	-15509
▁patron	-15510
▁Шта	-15511
▁Rose	-15512
▁doch	-15513
▁mixed	-15514
▁Spirit	-15515
▁Tay	-15516
шением	-15517
▁надежда	-15518
Бе	-15519
ima	-15520
моз	-15521
bbed	-15522
▁Parliament	-15523
ватель	-15524
▁error	-15525
▁губер	-15526
▁offers	-15527
▁отдыха	-15528
▁Vanilla	-15529
мил	-15530
▁Pap	-15531
▁Согла	-15532
▁лекар	-15533
▁авиации	-15534
▁Da	-15535
▁кругом	-15536
Greek	-15537
▁apprehens	-15538
▁computers	-15539
▁бросилась	-15540
enger	-15541
lands	-15542
▁authors	-15543
▁вете	-15544
Про	-15545
вится	-15546
▁Взгля	-15547
▁admire	-15548
ЕВ	-15549
▁beau	-15550
usions	-15551
▁#100	-15552
▁Элли	-15553
▁cheeks	-15554
танные	-15555
▁uttered	-15556
▁улыбаясь	-15557
▁ухва	-15558
▁annoy	-15559
▁камня	-15560
▁patience	-15561
▁высказы	-15562
ствительно	-15563
▁exert	-15564
▁strain	-15565
▁бесполез	-15566
рывно	-15567
▁turns	-15568
▁DAMAGES	-15569
▁получила	-15570
▁спрашивает	-15571
▁груз	-15572
ционный	-15573
▁подбородок	-15574
hearted	-15575
▁DISTRIBUT	-15576
▁Гля	-15577
▁disg	-15578
▁Едва	-15579
adelph	-15580
щенной	-15581
форд	-15582
▁deze	-15583
▁Пря	-15584
ляции	-15585
▁жене	-15586
master	-15587
▁abandoned	-15588
▁Мои	-15589
▁старых	-15590
▁syn	-15591
▁насы	-15592
▁фурго	-15593
▁отчаянно	-15594
▁overt	-15595
▁sincere	-15596
olation	-15597
▁адвока	-15598
▁lust	-15599
95	-15600
▁спя	-15601
▁lofty	-15602
▁owing	-15603
▁примеру	-15604
рук	-15605
▁LIAB	-15606
▁мозг	-15607
▁indicate	-15608
▁Donations	-15609
▁производства	-15610
▁dil	-15611
▁обязан	-15612
▁nervous	-15613
▁помнил	-15614
▁renamed	-15615
▁corresponding	-15616
bing	-15617
▁Sax	-15618
▁имуще	-15619
iens	-15620
▁доса	-15621
▁Redistrib	-15622
▁33	-15623
честву	-15624
▁campaign	-15625
▁протянула	-15626
▁melancholy	-15627
▁EBOOK	-15628
▁BREACH	-15629
▁готовы	-15630
▁партизан	-15631
▁WARRANTIES	-15632
▁км	-15633
▁Fer	-15634
▁grav	-15635
дилось	-15636
▁замести	-15637
▁blame	-15638
▁ловко	-15639
▁Прошло	-15640
▁слышать	-15641
▁чудовищ	-15642
▁electronically	-15643
▁WARRANTY	-15644
AMES	-15645
▁Cle	-15646
▁чудо	-15647
▁встать	-15648
▁вре	-15649
▁приходит	-15650
▁SP	-15651
стере	-15652
Did	-15653
▁Day	-15654
▁площадь	-15655
56;	-15656
▁разделя	-15657
▁adapt	-15658
▁Turk	-15659
▁wars	-15660
▁заказ	-15661
неве	-15662
чному	-15663
▁ghost	-15664
▁гармо	-15665
▁примет	-15666
▁helpless	-15667
▁supplied	-15668
▁танце	-15669
▁whisper	-15670
▁высокого	-15671
66	-15672
▁antiqu	-15673
▁восьми	-15674
▁неподале	-15675
_—	-15676
alm	-15677
слов	-15678
▁genu	-15679
▁лодки	-15680
▁деревни	-15681
▁additions	-15682
keep	-15683
▁монет	-15684
▁неподалеку	-15685
▁способность	-15686
▁AM	-15687
▁дне	-15688
▁divers	-15689
)(3)	-15690
▁troubles	-15691
▁financial	-15692
шля	-15693
some	-15694
▁гиб	-15695
ссанд	-15696
▁501(	-15697
▁tower	-15698
▁жаль	-15699
▁notre	-15700
▁hadn	-15701
▁unter	-15702
▁Тя	-15703
▁MRS	-15704
▁Фрей	-15705
▁existed	-15706
▁странное	-15707
▁вещь	-15708
utter	-15709
▁Belt	-15710
▁риско	-15711
▁задача	-15712
part	-15713
▁разры	-15714
▁век	-15715
▁сф	-15716
▁precip	-15717
мел	-15718
хий	-15719
мену	-15720
▁включая	-15721
▁kw	-15722
▁Бет	-15723
▁Кры	-15724
▁бед	-15725
переди	-15726
ленность	-15727
шенных	-15728
вятся	-15729
▁silk	-15730
▁явился	-15731
▁Вспо	-15732
unted	-15733
▁Pass	-15734
▁атаку	-15735
▁транс	-15736
etext	-15737
ниях	-15738
▁рыча	-15739
▁удер	-15740
▁облада	-15741
▁threatened	-15742
▁Bern	-15743
▁shoes	-15744
▁lighted	-15745
▁inferior	-15746
▁Ein	-15747
бл	-15748
уз	-15749
irs	-15750
▁финансо	-15751
▁окном	-15752
▁Сту	-15753
▁adopt	-15754
▁рекла	-15755
▁respecting	-15756
▁Нельзя	-15757
вязы	-15758
▁интеллек	-15759
Your	-15760
▁коричне	-15761
rift	-15762
сомо	-15763
шних	-15764
▁lev	-15765
aration	-15766
At	-15767
филь	-15768
ricult	-15769
▁вызвать	-15770
мере	-15771
▁gli	-15772
алоги	-15773
тивля	-15774
▁Jeff	-15775
▁масса	-15776
▁dared	-15777
▁tegen	-15778
▁Author	-15779
▁ски	-15780
▁фашист	-15781
▁Marian	-15782
▁процентов	-15783
equ	-15784
▁einer	-15785
▁взаимодей	-15786
aa	-15787
▁CL	-15788
шные	-15789
woord	-15790
▁syll	-15791
▁cheek	-15792
uto	-15793
▁pin	-15794
▁шлю	-15795
▁advantages	-15796
plicity	-15797
orse	-15798
▁bark	-15799
▁cavalry	-15800
тенци	-15801
ненной	-15802
▁Лай	-15803
▁statements	-15804
▁продолжали	-15805
▁Шар	-15806
▁распа	-15807
▁audience	-15808
▁steel	-15809
▁тридцати	-15810
anne	-15811
▁обед	-15812
▁phenomen	-15813
▁rush	-15814
▁труб	-15815
▁hunting	-15816
umption	-15817
▁удовольствия	-15818
ОД	-15819
sla	-15820
уголь	-15821
▁portrait	-15822
▁stronger	-15823
acious	-15824
рились	-15825
▁rifle	-15826
▁понимая	-15827
▁лбу	-15828
▁задачи	-15829
диль	-15830
▁dus	-15831
▁marks	-15832
▁нагру	-15833
31;	-15834
▁выходу	-15835
▁корпус	-15836
▁Cat	-15837
▁ich	-15838
▁сня	-15839
▁spra	-15840
щаются	-15841
▁вылез	-15842
▁доноси	-15843
▁скажем	-15844
▁Florence	-15845
▁нара	-15846
▁Ralph	-15847
gate	-15848
лиза	-15849
▁resc	-15850
▁карь	-15851
▁превосход	-15852
alls	-15853
lessness	-15854
▁ON	-15855
engers	-15856
▁prior	-15857
[...]
